{
  "</s>": 0,
  "<unk>": 1,
  ",": 2,
  ".": 3,
  "\u2581the": 4,
  "\u2581de": 5,
  "'": 6,
  "\u2581of": 7,
  "\u2581la": 8,
  "s": 9,
  "\u2581and": 10,
  "\u2581et": 11,
  "\u2581to": 12,
  "\u2581des": 13,
  "\u2581l": 14,
  "\u2581a": 15,
  "\u2581les": 16,
  "\u2581\u00e0": 17,
  "\u2581in": 18,
  "\u2581le": 19,
  "\u2581d": 20,
  "-": 21,
  "\u2581du": 22,
  "\u2581en": 23,
  "\u2581(": 24,
  "\u2581'": 25,
  "\u2581for": 26,
  "\u2581pour": 27,
  ")": 28,
  "\u2581que": 29,
  "\u2581on": 30,
  "\u2581dans": 31,
  "\u2581is": 32,
  "\u2581that": 33,
  "\u2581un": 34,
  "\u2581The": 35,
  "\u2581sur": 36,
  ":": 37,
  "\u2581une": 38,
  "\u2581au": 39,
  "\u2581par": 40,
  "\u2581-": 41,
  "\u2581with": 42,
  "\u2581est": 43,
  "\u2581qui": 44,
  "\u2581be": 45,
  "\u2581by": 46,
  "\u2581I": 47,
  "\u2581as": 48,
  "\u2581": 49,
  ";": 50,
  "e": 51,
  "\u2581are": 52,
  "\u2581pas": 53,
  "?": 54,
  "\u2581you": 55,
  "\u2581aux": 56,
  "\u2581or": 57,
  "\u2581\"": 58,
  "\u2581ou": 59,
  "\u2581Le": 60,
  "\u2581it": 61,
  "\u2581s": 62,
  "a": 63,
  "\u2581from": 64,
  "\u2581plus": 65,
  "\u2581ce": 66,
  "\u2581this": 67,
  "\u2581qu": 68,
  "\u2581was": 69,
  "\u2581sont": 70,
  "\u2581at": 71,
  "\u2581avec": 72,
  "\u2581not": 73,
  "/": 74,
  "t": 75,
  "\u2581ne": 76,
  "\u2581an": 77,
  "\u2581:": 78,
  "\u2581have": 79,
  "\u2581La": 80,
  "\u2581n": 81,
  "est": 82,
  "\u2581Les": 83,
  "\u2581A": 84,
  "\u2581which": 85,
  "\u2581will": 86,
  "\u2581L": 87,
  "\u2581vous": 88,
  "\u2581C": 89,
  "\u2581\u00e9t\u00e9": 90,
  "\u2581ont": 91,
  "\u2581il": 92,
  "un": 93,
  "\u2581has": 94,
  "\u2581se": 95,
  "\u2581its": 96,
  "\u2581In": 97,
  "\u2581all": 98,
  "\u2581?": 99,
  "\u2581\u00eatre": 100,
  "ing": 101,
  ").": 102,
  "\u2581their": 103,
  "\u2581Il": 104,
  "\u2581Commission": 105,
  "\u2581Canada": 106,
  "il": 107,
  "er": 108,
  "\u25811": 109,
  "...": 110,
  "d": 111,
  "une": 112,
  "\u2581son": 113,
  "es": 114,
  "\u2581can": 115,
  "\u2581nous": 116,
  "\u2581your": 117,
  "\u2581been": 118,
  "),": 119,
  "\u2581cette": 120,
  "\u2581also": 121,
  "m": 122,
  "\u2581we": 123,
  "ed": 124,
  "\u2581leur": 125,
  "\u2581other": 126,
  "\u2581comme": 127,
  "\u2581were": 128,
  "\u2581ces": 129,
  "\u2581pays": 130,
  "\u2581Je": 131,
  "\u2581Nations": 132,
  "y": 133,
  "\u2581En": 134,
  "\u2581S": 135,
  "\u2581services": 136,
  "\u2581c": 137,
  "\u2581It": 138,
  "r": 139,
  "\u2581non": 140,
  "\u25813": 141,
  "S": 142,
  "\u2581me": 143,
  "\u25812": 144,
  "!": 145,
  "\u2581sa": 146,
  "\u2581more": 147,
  "\u2581fait": 148,
  "\"": 149,
  "A": 150,
  "\u2581one": 151,
  "\u2581but": 152,
  "\u2581\u00ab": 153,
  "\u2581they": 154,
  "\u2581information": 155,
  "\u2581M": 156,
  "\u2581je": 157,
  "re": 158,
  "\u2581had": 159,
  "\u2581This": 160,
  "\u2581should": 161,
  "en": 162,
  "\u2581ses": 163,
  "\u2581entre": 164,
  "\u2581would": 165,
  "C": 166,
  "\u2581y": 167,
  "\u2581peut": 168,
  "\u2581o": 169,
  "\u2581no": 170,
  "\u25814": 171,
  "\u2581international": 172,
  "\u2581he": 173,
  "\u2581si": 174,
  "\u2581mais": 175,
  "\u2581out": 176,
  "\u25815": 177,
  "\u2581tout": 178,
  "\u2581his": 179,
  "\u2581D": 180,
  "\u2581d\u00e9veloppement": 181,
  "\u2581tous": 182,
  "\u2581faire": 183,
  "\u2581Conseil": 184,
  "\u2581United": 185,
  "on": 186,
  "\u258110": 187,
  "\u2581B": 188,
  "\u2581who": 189,
  "in": 190,
  "\u2581new": 191,
  "\u2581our": 192,
  "\u2581votre": 193,
  "\u2581States": 194,
  "\u2581time": 195,
  "\u2581there": 196,
  "\u2581do": 197,
  "\u2581such": 198,
  "\u2581under": 199,
  "\u2581about": 200,
  "\u2581programme": 201,
  "\u2581may": 202,
  "\u2581deux": 203,
  "\u2581Committee": 204,
  "\u2581up": 205,
  "\u2581\u00c9tats": 206,
  "\u2581ainsi": 207,
  "\u2581into": 208,
  "\u2581droits": 209,
  "\u2581national": 210,
  "ai": 211,
  "\u2581any": 212,
  "\u2581You": 213,
  "\u2581autres": 214,
  "\u2581travail": 215,
  "\u2581work": 216,
  "\u2581European": 217,
  "\u2581these": 218,
  "\u2581leurs": 219,
  "\u2581Council": 220,
  "\u2581\u00e9galement": 221,
  "c": 222,
  "\u2581m\u00eame": 223,
  "\u25816": 224,
  "\u2581part": 225,
  "b": 226,
  "\u2581public": 227,
  "\u2581shall": 228,
  "\u2581bien": 229,
  "\u2581rapport": 230,
  "\u2581aussi": 231,
  "\u2581than": 232,
  "\u2581On": 233,
  "\u2581J": 234,
  "\u2581if": 235,
  "\u2581E": 236,
  "\u2581We": 237,
  "\u2581P": 238,
  "\u2581so": 239,
  "\u2581my": 240,
  "\u2581membres": 241,
  "\u2581between": 242,
  "ment": 243,
  "ly": 244,
  "\u2581place": 245,
  "\u2581only": 246,
  "o": 247,
  "\u2581development": 248,
  "\u2581No": 249,
  "\u2581.": 250,
  "\u2581m": 251,
  "\u2581cas": 252,
  "al": 253,
  "\u2581them": 254,
  "\u2581countries": 255,
  "\u2581use": 256,
  "\u2581protection": 257,
  "\u2581R": 258,
  "or": 259,
  "\u25817": 260,
  "\u2581point": 261,
  "\u2581Comit\u00e9": 262,
  "i": 263,
  "\u2581made": 264,
  "z": 265,
  "\u2581sous": 266,
  "\u2581T": 267,
  "\u25818": 268,
  "\u2581session": 269,
  "\u2581what": 270,
  "\u2581two": 271,
  "\u2581service": 272,
  "\u2581people": 273,
  "\u00e9": 274,
  "\u2581s\u00e9curit\u00e9": 275,
  "\u2581well": 276,
  "\u2581Dans": 277,
  "\u2581[": 278,
  "\u2581contre": 279,
  "\u2581must": 280,
  "\u258115": 281,
  "ant": 282,
  "\u2581doit": 283,
  "\u2581dont": 284,
  "\u2581Convention": 285,
  "\u2581elle": 286,
  "\u2581some": 287,
  "\u2581when": 288,
  "\u2581those": 289,
  "\u258118": 290,
  "\u2581!": 291,
  "\u2581report": 292,
  "\u2581first": 293,
  "\u2581sans": 294,
  "\u2581\u00e9tait": 295,
  "\u2581personnes": 296,
  "\u2581droit": 297,
  "\u2581support": 298,
  "\u2581question": 299,
  "\u2581>": 300,
  "\u2581%": 301,
  "\u2581years": 302,
  "\u2581conditions": 303,
  "\u2581F": 304,
  "\u2581programmes": 305,
  "\u2581social": 306,
  "\u258130": 307,
  "\u258120": 308,
  "g": 309,
  "\u2581mesures": 310,
  "\u2581o\u00f9": 311,
  "\u25819": 312,
  "nt": 313,
  "\u2581over": 314,
  "\u2581Pour": 315,
  "\u2581lui": 316,
  "\u2581re": 317,
  "\u2581situation": 318,
  "\u258112": 319,
  "\u2581cours": 320,
  "\u2581through": 321,
  "\u2581possible": 322,
  "L": 323,
  "\u2581like": 324,
  "\u2581projet": 325,
  "\u2581Nous": 326,
  "\u2581rights": 327,
  "]": 328,
  "\u2581per": 329,
  "\u2581important": 330,
  "2": 331,
  "\u2581partie": 332,
  "\u2581De": 333,
  "B": 334,
  "\u2581Ce": 335,
  "\u2581including": 336,
  "th": 337,
  "\u2581system": 338,
  "\u2581plan": 339,
  "\u2581know": 340,
  "\u2581questions": 341,
  "\u2581\u2013": 342,
  "\u2581He": 343,
  "\u2581Vous": 344,
  "\u2581soit": 345,
  "\u2581where": 346,
  "\u2581year": 347,
  "\u2581activit\u00e9s": 348,
  "\u2581right": 349,
  "\u2581Si": 350,
  "\u2581j": 351,
  "le": 352,
  "\u2581Unies": 353,
  "\u2581need": 354,
  "\u2581mise": 355,
  "\u2581compte": 356,
  "\u2581p": 357,
  "\u00e0": 358,
  "\u2581G": 359,
  "\u2581g\u00e9n\u00e9ral": 360,
  "\u2581cadre": 361,
  "autres": 362,
  "\u2581toutes": 363,
  "n": 364,
  "\u2581number": 365,
  "\u2581tr\u00e8s": 366,
  "E": 367,
  "\u2581us": 368,
  "\u2581syst\u00e8me": 369,
  "\u2581jour": 370,
  "\u2581notre": 371,
  "\u2581donn\u00e9es": 372,
  "\u2581could": 373,
  "\u2581afin": 374,
  "\u2581Un": 375,
  "l": 376,
  "\u2581parties": 377,
  "\u2581her": 378,
  "\u2581\u2014": 379,
  "\u2581take": 380,
  "D": 381,
  "\u2581ans": 382,
  "\u2581b": 383,
  "\u2581nombre": 384,
  "\u2581N": 385,
  "\u2581For": 386,
  "\u2581tu": 387,
  "\u2581peuvent": 388,
  "\u2581order": 389,
  "\u2581produits": 390,
  "\u2581moins": 391,
  "\u2581Member": 392,
  "\u2581enfants": 393,
  "\u2581sant\u00e9": 394,
  "ait": 395,
  "\u2581femmes": 396,
  "\u2581within": 397,
  "\u2581temps": 398,
  "\u2581make": 399,
  "h": 400,
  "(": 401,
  "\u2581&": 402,
  "\u2581used": 403,
  "\u2581concernant": 404,
  "\u2581And": 405,
  "\u258111": 406,
  "\u2581State": 407,
  "\u2581human": 408,
  "\u2581long": 409,
  "\u2581\u00c0": 410,
  "\u2581most": 411,
  "ci": 412,
  "\u2581mati\u00e8re": 413,
  "\u2581site": 414,
  "\u2581article": 415,
  "\u2581\u00bb": 416,
  "\u2581application": 417,
  "\u2581ils": 418,
  "\u2581Et": 419,
  "\u2581very": 420,
  "\u2581base": 421,
  "\u2581politique": 422,
  "\u2581avait": 423,
  "\u2581just": 424,
  "\u2581activities": 425,
  "article": 426,
  "\u2581Mr": 427,
  "\u2581notamment": 428,
  "ce": 429,
  "\u2581What": 430,
  "elle": 431,
  "\u2581niveau": 432,
  "\u2581As": 433,
  "\u2581demande": 434,
  "\u2581efforts": 435,
  "\u2581General": 436,
  "\u2581apr\u00e8s": 437,
  "\u2581production": 438,
  "\u2581sera": 439,
  "\u2581following": 440,
  "\u258114": 441,
  "\u2581action": 442,
  "\u2581If": 443,
  "\u2581him": 444,
  "\u2581vie": 445,
  "ation": 446,
  "\u2581fois": 447,
  "\u2581women": 448,
  "\u2581being": 449,
  "\u2581Article": 450,
  "\u2581against": 451,
  "\u2581H": 452,
  "\u2581now": 453,
  "\u2581toute": 454,
  "\u2581europ\u00e9enne": 455,
  "\u258116": 456,
  "\u2581after": 457,
  "\u258113": 458,
  "\u2581provide": 459,
  "\u2581paragraphe": 460,
  "\u2581V": 461,
  "\u2581date": 462,
  "\u2581\u00e7a": 463,
  "\u2581country": 464,
  "\u258117": 465,
  "\u2581gestion": 466,
  "\u2581children": 467,
  "P": 468,
  "\u2581Une": 469,
  "\u2581avant": 470,
  "\u2581each": 471,
  "\u2581respect": 472,
  "\u2581measures": 473,
  "\u2581doivent": 474,
  "\u2581during": 475,
  "\u2581same": 476,
  "ll": 477,
  "\u2581document": 478,
  "\u2581here": 479,
  "\u2581population": 480,
  "\u2581encore": 481,
  "\u2581many": 482,
  "f": 483,
  "\u2581e": 484,
  "\u2581g\u00e9n\u00e9rale": 485,
  "\u2581recherche": 486,
  "\u2581before": 487,
  "\u2581To": 488,
  "ils": 489,
  "\u2581health": 490,
  "\u2581Tu": 491,
  "\u2581t": 492,
  "\u2581avoir": 493,
  "\u2581available": 494,
  "\u2581autre": 495,
  "\u2581Au": 496,
  "\u2581cet": 497,
  "\u2581vue": 498,
  "\u2581data": 499,
  "an": 500,
  "\u00eatre": 501,
  "\u2581\u00e9conomique": 502,
  "\u2581politiques": 503,
  "\u2581Europe": 504,
  "\u2581mon": 505,
  "\u2581way": 506,
  "\u2581monde": 507,
  "\u2581Elle": 508,
  "\u2581process": 509,
  "\u2581Government": 510,
  "de": 511,
  "\u2581total": 512,
  "\u2581law": 513,
  "able": 514,
  "\u2581ressources": 515,
  "\u258125": 516,
  "ve": 517,
  "\u2581level": 518,
  "\u2581formation": 519,
  "\u2581provided": 520,
  "\u2581chaque": 521,
  "\u2581world": 522,
  "\u2581institutions": 523,
  "\u2581dit": 524,
  "\u2581policy": 525,
  "\u2581K": 526,
  "\u2581car": 527,
  "\u2581case": 528,
  "p": 529,
  "\u2581Cette": 530,
  "\u2581don": 531,
  "T": 532,
  "\u2581both": 533,
  "\u2581economic": 534,
  "\u2581_": 535,
  "\u2581International": 536,
  "\u258119": 537,
  ".\"": 538,
  "ont": 539,
  "\u2581depuis": 540,
  "\u2581how": 541,
  "\u2581type": 542,
  "\u2581lieu": 543,
  "\u2581three": 544,
  "\u2581set": 545,
  "\u2581Union": 546,
  "\u2581trois": 547,
  "1": 548,
  "\u2581said": 549,
  "F": 550,
  "\u2581period": 551,
  "\u2581get": 552,
  "\u2581d\u00e9cision": 553,
  "\u2581implementation": 554,
  "\u2581Canadian": 555,
  "\u2581<": 556,
  "\u2581France": 557,
  "\u2581suis": 558,
  "M": 559,
  "\u2581There": 560,
  "I": 561,
  "\u2581nos": 562,
  "\u2581personnel": 563,
  "\u258124": 564,
  "\u2581r\u00e8glement": 565,
  "\u2581financial": 566,
  "it": 567,
  "\u2581because": 568,
  "\u2581loi": 569,
  "\u2581particular": 570,
  "\u2581meeting": 571,
  "\u2581processus": 572,
  "ons": 573,
  "\u2581ensure": 574,
  "\u2581internationale": 575,
  "\u2581area": 576,
  "\u2581Par": 577,
  "\u2581gouvernement": 578,
  "\u2581see": 579,
  "\u2581participation": 580,
  "\u2581good": 581,
  "\u2581Des": 582,
  "\u2581/": 583,
  "au": 584,
  "H": 585,
  "\u2581Programme": 586,
  "\u2581management": 587,
  "\u2581certain": 588,
  "\u2581ma": 589,
  "ez": 590,
  "\u2581then": 591,
  "\u2581did": 592,
  "\u2581That": 593,
  "\u2581resolution": 594,
  "\u2581members": 595,
  "\u2581New": 596,
  "et": 597,
  "\u2581donc": 598,
  "\u2581she": 599,
  "\u2581r\u00e9solution": 600,
  "\u2581budget": 601,
  "3": 602,
  "\u2581march\u00e9": 603,
  "\u2581transport": 604,
  "\u2581selon": 605,
  "\u2581without": 606,
  "ent": 607,
  "\u2581high": 608,
  "\u2581local": 609,
  "\u2581coop\u00e9ration": 610,
  "\u2581fin": 611,
  "G": 612,
  "\u2581day": 613,
  "\u2581pendant": 614,
  "information": 615,
  "\u2581They": 616,
  "ur": 617,
  "\u2581assistance": 618,
  "\u2581Assembly": 619,
  "\u2581secteur": 620,
  "\u2581continue": 621,
  "\u2581issues": 622,
  "x": 623,
  "\u2581p\u00e9riode": 624,
  "\u258121": 625,
  "\u2581jusqu": 626,
  "\u2581But": 627,
  "\u2581products": 628,
  "\u2581documents": 629,
  "\u2581Community": 630,
  "\u2581go": 631,
  "\u2581life": 632,
  "\u2581areas": 633,
  "ca": 634,
  "R": 635,
  "\u2581prendre": 636,
  "\u2581r\u00e9sultats": 637,
  "\u2581further": 638,
  "\u2581want": 639,
  "\u2581Act": 640,
  "\u2581informations": 641,
  "\u2581training": 642,
  "\u2581main": 643,
  "\u2581groupe": 644,
  "\u2581At": 645,
  "\u2581All": 646,
  "\u2581page": 647,
  "\u258131": 648,
  "\u2581access": 649,
  "\u2581even": 650,
  "\u2581decision": 651,
  "\u2581plusieurs": 652,
  "\u2581mesure": 653,
  "\u2581titre": 654,
  "\u2581ann\u00e9es": 655,
  "\u2581market": 656,
  "N": 657,
  "\u2581personne": 658,
  "\u2581security": 659,
  "\u2581Re": 660,
  "\u2581mois": 661,
  "\u2581pr\u00e9sent": 662,
  "\u2581000": 663,
  "\u2581does": 664,
  "\u2581ceux": 665,
  "\u2581nouveau": 666,
  "\u2581help": 667,
  "\u2581position": 668,
  "\u2581section": 669,
  "as": 670,
  "\u2581since": 671,
  "\u2581Ces": 672,
  "com": 673,
  "\u2581organisations": 674,
  "\u2581particulier": 675,
  "\u2581EU": 676,
  "\u2581premi\u00e8re": 677,
  "\u2581dollars": 678,
  "\u2581Mais": 679,
  "\u2581compris": 680,
  "\u2581different": 681,
  "vous": 682,
  "\u2581Groupe": 683,
  "\u2581resources": 684,
  "us": 685,
  "\u2581fa\u00e7on": 686,
  "to": 687,
  "\u2581taken": 688,
  "\u2581nom": 689,
  "\u2581government": 690,
  "\u2581million": 691,
  "\u2581...": 692,
  "\u2581certains": 693,
  "\u2581large": 694,
  "\u2581mettre": 695,
  "\u2581qualit\u00e9": 696,
  "\u2581devrait": 697,
  "\u2581premier": 698,
  "\u2581cent": 699,
  "\u2581homme": 700,
  "\u258122": 701,
  "\u2581inter": 702,
  "\u2581end": 703,
  "eau": 704,
  "\u2581last": 705,
  "\u2581prix": 706,
  "Union": 707,
  "\u2581O": 708,
  "\u2581vers": 709,
  "\u2581dispositions": 710,
  "\u2581note": 711,
  "\u2581tant": 712,
  "\u2581change": 713,
  "\u2581domaine": 714,
  "\u2581projets": 715,
  "\u2581vos": 716,
  "\u2581back": 717,
  "\u2581Development": 718,
  "\u2581entreprises": 719,
  "k": 720,
  "\u2581toujours": 721,
  "\u2581exemple": 722,
  "\u2581project": 723,
  "\u2581December": 724,
  "\u2581soci\u00e9t\u00e9": 725,
  "\u2581moment": 726,
  "\u2581cooperation": 727,
  "\u258123": 728,
  "\u2581peu": 729,
  "\u2581savoir": 730,
  "\u2581based": 731,
  "\u2581relevant": 732,
  "\u2581lors": 733,
  "\u2581Pr\u00e9sident": 734,
  "\u2581jours": 735,
  "\u2581\u00e9taient": 736,
  "\u2581mani\u00e8re": 737,
  "age": 738,
  "\u258150": 739,
  "\u2581va": 740,
  "\u2581Group": 741,
  "\u2581produit": 742,
  "\u2581conform\u00e9ment": 743,
  "\u2581force": 744,
  ");": 745,
  "up": 746,
  "\u25810": 747,
  "\u2581research": 748,
  "\u2581Centre": 749,
  "\u2581working": 750,
  "K": 751,
  "\u2581So": 752,
  "\u2581nature": 753,
  "\u2581d\u00e9j\u00e0": 754,
  "\u2581\u0153uvre": 755,
  "ra": 756,
  "\u2581necessary": 757,
  "\u2581d\u00e9cembre": 758,
  "\u2581own": 759,
  "\u2581view": 760,
  "\u2581down": 761,
  "\u2581paragraph": 762,
  "\u2581II": 763,
  "General": 764,
  "\u2581Secretary": 765,
  "\".": 766,
  "\u2581contr\u00f4le": 767,
  "\u2581grande": 768,
  "\u2581ici": 769,
  "\u2581avons": 770,
  "\u2581President": 771,
  "ne": 772,
  "\u2581millions": 773,
  "la": 774,
  "\u2581\u20ac": 775,
  "the": 776,
  "\u2581ci": 777,
  "V": 778,
  "\u2581;": 779,
  "\u2581police": 780,
  "\u2581regard": 781,
  "\u2581mis": 782,
  "\u2581points": 783,
  "\u2581nouvelle": 784,
  "\u2581education": 785,
  "\u2581pr\u00e9sente": 786,
  "\u2581second": 787,
  "\u2581Regulation": 788,
  "\u2581communication": 789,
  "\u2581National": 790,
  "\u2581while": 791,
  "ic": 792,
  "\u2581Ils": 793,
  "ers": 794,
  "\u2581\u00c9tat": 795,
  "\u2581Republic": 796,
  "\u2581general": 797,
  "\u2581organizations": 798,
  "\u2581regional": 799,
  "\u2581group": 800,
  "\u2581required": 801,
  "\u2581violence": 802,
  "\u2581water": 803,
  "\u2581justice": 804,
  "EC": 805,
  "\u2581co": 806,
  "\u2581faut": 807,
  "\u00bb": 808,
  "\u2581community": 809,
  "\u2581seulement": 810,
  "\u2581concerne": 811,
  "\u2581legal": 812,
  "\u2581taux": 813,
  "\u2581seront": 814,
  "\u2581paix": 815,
  "aient": 816,
  "_": 817,
  "\u2581June": 818,
  "\u2581basis": 819,
  "\u2581r\u00e9gion": 820,
  "\u2581europ\u00e9en": 821,
  "\u2581Secr\u00e9taire": 822,
  "\u2581cela": 823,
  "\u2581accordance": 824,
  "\u2581moi": 825,
  "\u2581100": 826,
  "\u2581full": 827,
  "\u2581nouvelles": 828,
  "\u2581Office": 829,
  "\u25811.": 830,
  "\u2581DE": 831,
  "\u2581grand": 832,
  "\u2581person": 833,
  "\u2581special": 834,
  "\u2581still": 835,
  "\u25812006": 836,
  "\u2581business": 837,
  "\u2581think": 838,
  "O": 839,
  "\u2581means": 840,
  "\u2581present": 841,
  "\u2581future": 842,
  "\u2581r\u00f4le": 843,
  "\u2581account": 844,
  "\u2581chez": 845,
  "\u258128": 846,
  "\u2581These": 847,
  "\u258127": 848,
  "\u2581alors": 849,
  "W": 850,
  "\u2581besoin": 851,
  "\u2581given": 852,
  "\u2581travaux": 853,
  "\u2581Conference": 854,
  "\u2581suite": 855,
  "\u2581However": 856,
  "\u2581objectifs": 857,
  "\u2581centre": 858,
  "les": 859,
  "\u2581political": 860,
  "\u2581juin": 861,
  "\u2581days": 862,
  "\u2581ligne": 863,
  "ou": 864,
  "\u2581review": 865,
  "\u2581among": 866,
  "\u2581avez": 867,
  "\u2581specific": 868,
  "\u2581held": 869,
  "\u2581--": 870,
  "\u2581eu": 871,
  "\u2581God": 872,
  "\u2581effective": 873,
  "\u2581h": 874,
  "\u2581adopted": 875,
  "\u25812005": 876,
  "\u2581best": 877,
  "\u258126": 878,
  "\u00a9": 879,
  "\u2581include": 880,
  "\u2581free": 881,
  "\u2581Parties": 882,
  "man": 883,
  "\u2581May": 884,
  "\u2581persons": 885,
  "\u2581come": 886,
  "\u2581te": 887,
  "\u2581ayant": 888,
  "\u25812007": 889,
  "\u2581much": 890,
  "\u2581elles": 891,
  "\u2581renseignements": 892,
  "\u2581voir": 893,
  "ie": 894,
  "\u2581needs": 895,
  "CE": 896,
  "\u2581trade": 897,
  "\u2581Bureau": 898,
  "\u2581results": 899,
  "is": 900,
  "\u2581celui": 901,
  "\u2581Service": 902,
  "\u2581form": 903,
  "\u2581requirements": 904,
  "\u2581actions": 905,
  "\u2581r\u00e9": 906,
  "\u2581find": 907,
  "\u2581role": 908,
  "The": 909,
  "\u2581cause": 910,
  "\u2581R\u00e9publique": 911,
  "\u2581appropriate": 912,
  "\u2581control": 913,
  "\u2581dire": 914,
  "\u2581laquelle": 915,
  "\u2581Rights": 916,
  "\u2581sector": 917,
  "\u2581cases": 918,
  "\u2581relatives": 919,
  "\u2581importance": 920,
  "\u2581related": 921,
  "\u2581groupes": 922,
  "\u2581Security": 923,
  "\u2581beaucoup": 924,
  "\u2581probl\u00e8mes": 925,
  "\u2581soient": 926,
  "\u2581ann\u00e9e": 927,
  "\u2581found": 928,
  "\u2581partir": 929,
  "\u2581nationale": 930,
  "\u2581W": 931,
  "\u2581With": 932,
  "\u2581small": 933,
  "\u2581family": 934,
  "\u2581An": 935,
  "\u2581effet": 936,
  "\u25811,": 937,
  "\u2581party": 938,
  "\u2581draft": 939,
  "\u2581man": 940,
  "\u2581face": 941,
  "\u2581increase": 942,
  "\u2581example": 943,
  "\u2581established": 944,
  "\u25812004": 945,
  "\u2581give": 946,
  "\u2581Services": 947,
  "J": 948,
  "\u2581raison": 949,
  "\u2581nouveaux": 950,
  "\u2581quelques": 951,
  "\u2581fonction": 952,
  "\u2581l\u00e0": 953,
  "\u2581g": 954,
  "\u2581discrimination": 955,
  "\u2581Board": 956,
  "\u2581Human": 957,
  "\u2581promotion": 958,
  "UE": 959,
  "\u2581pourrait": 960,
  "\u2581coordination": 961,
  "\u2581ex": 962,
  "\u2581every": 963,
  "\",": 964,
  "\u2581visant": 965,
  "\u00e9tait": 966,
  "\u2581issue": 967,
  "\u2581provisions": 968,
  "\u2581impact": 969,
  "at": 970,
  "\u2581contact": 971,
  "\u2581heures": 972,
  "v": 973,
  "\u2581quality": 974,
  "\u2581outre": 975,
  "\u00b0": 976,
  "\u258129": 977,
  "\u2581traitement": 978,
  "\u2581six": 979,
  "\u2581July": 980,
  "\u2581Dieu": 981,
  "\u2581initiatives": 982,
  "\u2581staff": 983,
  "\u258140": 984,
  "ion": 985,
  "\u2581i": 986,
  "\u2581$": 987,
  "\u2581ni": 988,
  "\u2581Court": 989,
  "\u2581authorities": 990,
  "\u2581better": 991,
  "\u25812.": 992,
  "\u2581whether": 993,
  "homme": 994,
  "\u2581She": 995,
  "\u2581U": 996,
  "\u2581besoins": 997,
  "\u2581March": 998,
  "\u2581World": 999,
  "\u25812008": 1000,
  "aide": 1001,
  "4": 1002,
  "\u2581moyen": 1003,
  "\u2581global": 1004,
  "\u2581groups": 1005,
  "\u2581minutes": 1006,
  "\u2581Health": 1007,
  "\u2581final": 1008,
  "\u2581rapports": 1009,
  "\u2581am": 1010,
  "\u2581bon": 1011,
  "\u2581plans": 1012,
  "\u2581projects": 1013,
  "Unis": 1014,
  "application": 1015,
  "\u2581already": 1016,
  "\u2581current": 1017,
  "\u2581result": 1018,
  "\u2581various": 1019,
  "\u2581attention": 1020,
  "\u2581relations": 1021,
  "\u2581pouvoir": 1022,
  "\u2581addition": 1023,
  "art": 1024,
  "\u2581etc": 1025,
  "ity": 1026,
  "\u2581comment": 1027,
  "\u2581pris": 1028,
  "\u2581n\u00e9cessaire": 1029,
  "\u25812000": 1030,
  "\u2581course": 1031,
  "\u2581valeur": 1032,
  "\u2581care": 1033,
  "\u2581Parliament": 1034,
  "\u2581subject": 1035,
  "\u2581another": 1036,
  "\u2581January": 1037,
  "\u2581program": 1038,
  "\u2581famille": 1039,
  "\u2581construction": 1040,
  "\u2581serait": 1041,
  "\u2581sujet": 1042,
  "\u2581above": 1043,
  "el": 1044,
  "\u2581articles": 1045,
  "utilisation": 1046,
  "\u2581considered": 1047,
  "\u2581terme": 1048,
  "\u2581mieux": 1049,
  "\u2581certaines": 1050,
  "hui": 1051,
  "\u2581participants": 1052,
  "\u2581organismes": 1053,
  "ine": 1054,
  "\u2581Plan": 1055,
  "\u2581Information": 1056,
  "\u2581pro": 1057,
  "\u2581Gouvernement": 1058,
  "\u2581product": 1059,
  "\u2581Code": 1060,
  "\u2581juillet": 1061,
  "\u2581four": 1062,
  "\u2581say": 1063,
  "\u00e9s": 1064,
  "\u2581techniques": 1065,
  "\u2581Conf\u00e9rence": 1066,
  "\u2581capacity": 1067,
  "\u2581con": 1068,
  "\u2581pouvez": 1069,
  "\u2581Parlement": 1070,
  "co": 1071,
  "um": 1072,
  "\u2581financement": 1073,
  "\u2581directive": 1074,
  "\u2581mission": 1075,
  "\u2581developing": 1076,
  "\u2581celle": 1077,
  "action": 1078,
  "\u00c9tat": 1079,
  "\u2581risk": 1080,
  "\u2581great": 1081,
  "\u2581quand": 1082,
  "\u2581publique": 1083,
  "\u2581membre": 1084,
  "\u2581therefore": 1085,
  "\u2581obligations": 1086,
  "\u2581common": 1087,
  "ar": 1088,
  "\u2581systems": 1089,
  "\u2581Social": 1090,
  "\u2581technical": 1091,
  "\u2581jeunes": 1092,
  "\u2581mars": 1093,
  "\u2581October": 1094,
  "\u2581fact": 1095,
  "aux": 1096,
  "\u2581using": 1097,
  "ia": 1098,
  "\u2581autorit\u00e9s": 1099,
  "\u25812003": 1100,
  "\u2581mai": 1101,
  "\u2581janvier": 1102,
  "\u2581Minister": 1103,
  "\u2581technique": 1104,
  "\u2581less": 1105,
  "\u2581dis": 1106,
  "\u2581liste": 1107,
  "u": 1108,
  "\u2581French": 1109,
  "\u2581fonds": 1110,
  "\u2581When": 1111,
  "\u2581too": 1112,
  "\u2581Al": 1113,
  "\u2581region": 1114,
  "\u2581contribution": 1115,
  "\u2581child": 1116,
  "\u2581donn\u00e9": 1117,
  "\u2581forme": 1118,
  "\u2581maintenant": 1119,
  "\u2581affaires": 1120,
  "\u2581How": 1121,
  "\u2581proposed": 1122,
  "\u2581Do": 1123,
  "\u2581going": 1124,
  "\u2581relative": 1125,
  "\u2581September": 1126,
  "00": 1127,
  "\u2581sais": 1128,
  "\u2581name": 1129,
  "\u2581instruments": 1130,
  "\u2581charge": 1131,
  "\u2581syst\u00e8mes": 1132,
  "\u2581montant": 1133,
  "\u2581around": 1134,
  "\u2581costs": 1135,
  "\u2581Oui": 1136,
  "\u25812002": 1137,
  "\u2581Loi": 1138,
  "\u2581rules": 1139,
  "\u2581major": 1140,
  "\u00e9valuation": 1141,
  "\u2581vertu": 1142,
  "\u2581proc\u00e9dure": 1143,
  "\u2581address": 1144,
  "\u2581n\u00e9cessaires": 1145,
  "w": 1146,
  "\u2581Special": 1147,
  "tu": 1148,
  "\u2581English": 1149,
  "\u2581lorsque": 1150,
  "\u2581interest": 1151,
  "autre": 1152,
  "\u2581chose": 1153,
  "\u2581able": 1154,
  "\u2581cr\u00e9ation": 1155,
  "\u2581next": 1156,
  "\u2581reports": 1157,
  "\u2581third": 1158,
  "\u2581Internet": 1159,
  "ton": 1160,
  "\u2581jamais": 1161,
  "ry": 1162,
  "\u00e9e": 1163,
  "\u2581field": 1164,
  "\u2581off": 1165,
  "\u2581capital": 1166,
  "te": 1167,
  "\u2581levels": 1168,
  "\u2581November": 1169,
  "\u2581r\u00e9union": 1170,
  "\u2581policies": 1171,
  "\u2581put": 1172,
  "\u2581probl\u00e8me": 1173,
  "\u2581home": 1174,
  "\u2581terms": 1175,
  "\u2581concerned": 1176,
  "\u2581private": 1177,
  "\u2581aspects": 1178,
  "\u2581forces": 1179,
  "\u2581amount": 1180,
  "\u2581together": 1181,
  "\u2581culture": 1182,
  "\u2581Non": 1183,
  "\u2581types": 1184,
  "\u2581upon": 1185,
  "\u2581several": 1186,
  "\u2581least": 1187,
  "\u2581progress": 1188,
  "\u2581mondiale": 1189,
  "\u2581sommes": 1190,
  "emploi": 1191,
  "\u2581structure": 1192,
  "\u2581rate": 1193,
  "\u2581contributions": 1194,
  "\u2581energy": 1195,
  "\u2581received": 1196,
  "\u2581environment": 1197,
  "\u2581septembre": 1198,
  "\u2581dialogue": 1199,
  "\u2581commerce": 1200,
  "\u2581technologies": 1201,
  "na": 1202,
  "\u2581Paris": 1203,
  "\u2581My": 1204,
  "\u2581d\u00e9": 1205,
  "\u2581got": 1206,
  "\u2581performance": 1207,
  "\u2581d\u00e9penses": 1208,
  "\u2581soutien": 1209,
  "\u2581km": 1210,
  "\u2581*": 1211,
  "\u2581framework": 1212,
  "\u2581sociale": 1213,
  "\u2581sources": 1214,
  "\u2581air": 1215,
  "\u2581April": 1216,
  "\u2581moyens": 1217,
  "ch": 1218,
  "\u2581Economic": 1219,
  "\u2581devraient": 1220,
  "\u2581St": 1221,
  "st": 1222,
  "\u2581value": 1223,
  "\u2581\u00e9l\u00e9ments": 1224,
  "\u2581durable": 1225,
  "\u2581version": 1226,
  "\u2581octobre": 1227,
  "\u2581member": 1228,
  "\u2581request": 1229,
  "\u2581novembre": 1230,
  "\u2581f": 1231,
  "\u2581Web": 1232,
  "\u2581solution": 1233,
  "\u2581quatre": 1234,
  "\u2581ville": 1235,
  "\u2581avaient": 1236,
  "\u2581unique": 1237,
  "\u2581agreement": 1238,
  "\u2581food": 1239,
  "\u2581open": 1240,
  "\u2581approach": 1241,
  "\u2581risque": 1242,
  "\u2581experience": 1243,
  "ist": 1244,
  "\u2581assurer": 1245,
  "Y": 1246,
  "\u2581Comme": 1247,
  "ir": 1248,
  "\u2581source": 1249,
  "\u2581sein": 1250,
  "\u2581devant": 1251,
  "\u2581provides": 1252,
  "\u2581collaboration": 1253,
  "\u2581little": 1254,
  "\u2581key": 1255,
  "\u2581diff\u00e9rents": 1256,
  "environnement": 1257,
  "\u2581Assembl\u00e9e": 1258,
  "\u2581hommes": 1259,
  "\u2581\u00e9tant": 1260,
  "\u2581developed": 1261,
  "\u2581Saint": 1262,
  "apr\u00e8s": 1263,
  "\u2581tenu": 1264,
  "\u2581additional": 1265,
  "\u2581cost": 1266,
  "\u2581experts": 1267,
  "\u2581environmental": 1268,
  "\u25812001": 1269,
  "\u258160": 1270,
  "\u2581\u00e9conomiques": 1271,
  "\u2581particularly": 1272,
  "\u2581lutte": 1273,
  "ance": 1274,
  "\u2581\u2022": 1275,
  "\u2581Qu": 1276,
  "\u2581Co": 1277,
  "\u2581aide": 1278,
  "\u25813.": 1279,
  "\u2581direction": 1280,
  "\u2581Organisation": 1281,
  "\u2581sp\u00e9cial": 1282,
  "\u2581zone": 1283,
  "\u2581pratiques": 1284,
  "\u2581THE": 1285,
  "\u2581Ne": 1286,
  "\u2581Tribunal": 1287,
  "\u2581power": 1288,
  "\u2581months": 1289,
  "\u2581nombreux": 1290,
  "\u2581rien": 1291,
  "\u2581included": 1292,
  "\u2581Africa": 1293,
  "\u2581industry": 1294,
  "elles": 1295,
  "\u2581internationales": 1296,
  "\u2581February": 1297,
  "\u2581might": 1298,
  "\u2581normes": 1299,
  "\u2581society": 1300,
  "\u2581anti": 1301,
  "\u2581recommandations": 1302,
  "\u2581ensemble": 1303,
  "\u2581donner": 1304,
  "\u2581Cour": 1305,
  "\u2581become": 1306,
  "\u2581celles": 1307,
  "ul": 1308,
  "\u2581deuxi\u00e8me": 1309,
  "\u2581domaines": 1310,
  "\u2581aupr\u00e8s": 1311,
  "ex": 1312,
  "\u2581Directive": 1313,
  "\u2581renforcer": 1314,
  "\u2581few": 1315,
  "\u2581due": 1316,
  "\u2581list": 1317,
  "\u2581concerning": 1318,
  "\u2581op\u00e9rations": 1319,
  "\u2581souvent": 1320,
  "\u2581direct": 1321,
  "\u2581men": 1322,
  "6": 1323,
  "\u2581avis": 1324,
  "\u2581veux": 1325,
  "\u2581company": 1326,
  "\u2581dernier": 1327,
  "\u2581permet": 1328,
  "\u2581r": 1329,
  "\u25812010": 1330,
  "\u2581r\u00e9gions": 1331,
  "\u2581legislation": 1332,
  "\u2581civil": 1333,
  "\u2581parce": 1334,
  "\u25812,": 1335,
  "\u2581study": 1336,
  "\u2581quelque": 1337,
  "\u2581Department": 1338,
  "\u2581\u00e9gard": 1339,
  "\u2581fournir": 1340,
  "\u2581five": 1341,
  "\u2581individual": 1342,
  "\u2581bonne": 1343,
  "\u2581font": 1344,
  "\u2581light": 1345,
  "\u2581maison": 1346,
  "\u2581oeuvre": 1347,
  "\u2581until": 1348,
  "\u2581examen": 1349,
  "\u2581clients": 1350,
  "\u2581avril": 1351,
  "con": 1352,
  "\u2581always": 1353,
  "\u2581vu": 1354,
  "\u2581real": 1355,
  "par": 1356,
  "\u2581f\u00e9vrier": 1357,
  "\u2581Communaut\u00e9": 1358,
  "\u2581fins": 1359,
  "os": 1360,
  "and": 1361,
  "\u2581peace": 1362,
  "\u2581having": 1363,
  "\u2581One": 1364,
  "\u2581gr\u00e2ce": 1365,
  "\u2581problems": 1366,
  "\u2581recommendations": 1367,
  "\u2581juste": 1368,
  "\u2581r\u00e8gles": 1369,
  "\u2581distribution": 1370,
  "\u2581croissance": 1371,
  "\u2581employment": 1372,
  "\u2581Oh": 1373,
  "\u2581look": 1374,
  "\u2581vigueur": 1375,
  "\u2581quoi": 1376,
  "\u2581times": 1377,
  "\u2581growth": 1378,
  "\u2581standards": 1379,
  "\u2581eux": 1380,
  "\u2581called": 1381,
  "\u2581met": 1382,
  "\u2581am\u00e9liorer": 1383,
  "\u2581again": 1384,
  "\u25812009": 1385,
  "\u2581applicable": 1386,
  "\u2581frais": 1387,
  "\u2581sens": 1388,
  "\u2581test": 1389,
  "\u2581d\u00e9cisions": 1390,
  "\u2581body": 1391,
  "\u2581X": 1392,
  "\u2581safety": 1393,
  "\u2581today": 1394,
  "\u2581nationales": 1395,
  "\u2581meet": 1396,
  "\u2581suivi": 1397,
  "\u2581+": 1398,
  "\u2581administration": 1399,
  "\u2581acc\u00e8s": 1400,
  "\u2581sites": 1401,
  "\u2581communaut\u00e9": 1402,
  "\u2581effets": 1403,
  "\u2581zones": 1404,
  "ter": 1405,
  "\u2581condition": 1406,
  "\u00c3": 1407,
  "\u2581\u00eates": 1408,
  "\u2581improve": 1409,
  "\u2581line": 1410,
  "\u2581tel": 1411,
  ".1": 1412,
  "\u2581Home": 1413,
  "\u2581Your": 1414,
  "\u2581agenda": 1415,
  "\u2581aujourd": 1416,
  "\u2581taking": 1417,
  "ad": 1418,
  "ro": 1419,
  "ensemble": 1420,
  "\u2581Well": 1421,
  "\u2581treatment": 1422,
  "\u2581Mission": 1423,
  "\u2581prises": 1424,
  "\u2581cinq": 1425,
  "\u2581haut": 1426,
  "\u2581Or": 1427,
  "\u2581proposition": 1428,
  "\u2581Contact": 1429,
  "X": 1430,
  "\u2581young": 1431,
  "ner": 1432,
  "AC": 1433,
  "\u2581increased": 1434,
  "am": 1435,
  "\u2581Q": 1436,
  "\u2581file": 1437,
  "\u2581Report": 1438,
  "\u2581Public": 1439,
  "\u2581never": 1440,
  "\u25812012": 1441,
  "\u2581vote": 1442,
  "Europe": 1443,
  "\u2581minimum": 1444,
  "\u2581age": 1445,
  "\u2581however": 1446,
  "\u2581post": 1447,
  "ac": 1448,
  "\u2581repr\u00e9sentants": 1449,
  "\u2581court": 1450,
  "\u2581content": 1451,
  "\u2581aucune": 1452,
  "\u2581really": 1453,
  "\u2581consultations": 1454,
  "ate": 1455,
  "\u2581submitted": 1456,
  "\u2581state": 1457,
  "ann\u00e9e": 1458,
  "\u2581code": 1459,
  "me": 1460,
  "\u2581More": 1461,
  "\u2581existing": 1462,
  "\u2581d\u00e9claration": 1463,
  "\u2581price": 1464,
  "\u2581Z": 1465,
  "\u2581centres": 1466,
  "\u2581capacit\u00e9": 1467,
  "\u2581changes": 1468,
  "\u2581parents": 1469,
  "\u2581texte": 1470,
  "\u2581aider": 1471,
  "\u2581tels": 1472,
  "\u2581knowledge": 1473,
  "\u2581equipment": 1474,
  "\u2581technology": 1475,
  "\u2581diff\u00e9rentes": 1476,
  "\u2581progr\u00e8s": 1477,
  "\u2581room": 1478,
  "\u2581surveillance": 1479,
  "\u2581table": 1480,
  "\u2581took": 1481,
  "\u2581active": 1482,
  "voir": 1483,
  "\u2581pr\u00e8s": 1484,
  "*": 1485,
  "\u2581proc\u00e9dures": 1486,
  "\u2581adoption": 1487,
  "\u2581aucun": 1488,
  "\u2581land": 1489,
  "\u2581assessment": 1490,
  "\u2581far": 1491,
  "\u2581First": 1492,
  "\u2581significant": 1493,
  "5": 1494,
  "\u2581school": 1495,
  "\u2581problem": 1496,
  "\u2581whole": 1497,
  "\u2581gens": 1498,
  "\u2581pu": 1499,
  "\u2581apply": 1500,
  "ive": 1501,
  "que": 1502,
  "\u2581consultation": 1503,
  "ions": 1504,
  "\u2581patients": 1505,
  "no": 1506,
  "\u2581effect": 1507,
  "\u2581referred": 1508,
  "\u2581pre": 1509,
  "\u2581OF": 1510,
  "\u2581Comment": 1511,
  "\u2581trouver": 1512,
  "\u25812015": 1513,
  "\u2581towards": 1514,
  "\u2581done": 1515,
  "\u2581Plus": 1516,
  "\u2581permis": 1517,
  "\u2581August": 1518,
  "\u2581femme": 1519,
  "\u2581solutions": 1520,
  "\u2581responsible": 1521,
  "\u2581risques": 1522,
  "\u2581toi": 1523,
  "\u2581accord": 1524,
  "U": 1525,
  "\u2581often": 1526,
  "\u2581design": 1527,
  "\u2581maximum": 1528,
  "\u2581making": 1529,
  "\u2581tax": 1530,
  "\u2581goods": 1531,
  "\u2581context": 1532,
  "\u2581Bien": 1533,
  "\u2581ministre": 1534,
  "\u2581Our": 1535,
  "\u2581why": 1536,
  "\u2581administrative": 1537,
  "\u2581Date": 1538,
  "\u2581hand": 1539,
  "\u2581especially": 1540,
  "\u2581organisation": 1541,
  "\u2581reste": 1542,
  "\u2581Agency": 1543,
  "\u2581Mme": 1544,
  "\u2581Mon": 1545,
  "\u2581Minist\u00e8re": 1546,
  "eur": 1547,
  "\u2581call": 1548,
  "acc\u00e8s": 1549,
  "\u2581promote": 1550,
  "\u2581permettre": 1551,
  "\u2581procedures": 1552,
  "\u2581involved": 1553,
  "\u2581nationaux": 1554,
  "\u2581something": 1555,
  "\u2581clear": 1556,
  "\u2581below": 1557,
  "\u2581principal": 1558,
  "\u2581disponibles": 1559,
  "\u2581natural": 1560,
  "\u2581Car": 1561,
  "\u2581operations": 1562,
  "\u2581III": 1563,
  "ard": 1564,
  "\u2581plupart": 1565,
  "\u2581cannot": 1566,
  "ticuli\u00e8rement": 1567,
  "\u2581meetings": 1568,
  "\u2014": 1569,
  "\u2581Tout": 1570,
  "\u2581peux": 1571,
  "\u2581\u0301": 1572,
  "\u2581r\u00e9gime": 1573,
  "\u2581ton": 1574,
  "\u2581initiative": 1575,
  "\u2581Qu\u00e9bec": 1576,
  "\u2581commercial": 1577,
  "\u2581cr\u00e9er": 1578,
  "\u2581prise": 1579,
  "\u2581house": 1580,
  "\u2581simple": 1581,
  "\u2581Working": 1582,
  "\u2581proposal": 1583,
  "see": 1584,
  "\u2581trop": 1585,
  "):": 1586,
  "\u25812011": 1587,
  "per": 1588,
  "\u2581potential": 1589,
  "\u2581Y": 1590,
  "\u2581co\u00fbts": 1591,
  "\u2581property": 1592,
  "\u2581r\u00e9seau": 1593,
  "\u2581opinion": 1594,
  "\u2581procedure": 1595,
  "\u2581derni\u00e8re": 1596,
  "id": 1597,
  "\u2581mondial": 1598,
  "\u2581aid": 1599,
  "\u2581faveur": 1600,
  "\u2581develop": 1601,
  "\u2581principes": 1602,
  "\u2581strat\u00e9gie": 1603,
  "\u2581mes": 1604,
  "r\u00e9": 1605,
  "\u25812013": 1606,
  "\u2581r\u00e9f\u00e9rence": 1607,
  "\u2581office": 1608,
  "\u2581things": 1609,
  "\u2581mal": 1610,
  "land": 1611,
  "\u2581d\u00e9but": 1612,
  "\u2581hours": 1613,
  "accord": 1614,
  "\u2581according": 1615,
  "\u2581mandat": 1616,
  "\u2581\u00c7a": 1617,
  "\u2581close": 1618,
  "\u2581communications": 1619,
  "\u2581Other": 1620,
  "Assembl\u00e9e": 1621,
  "\u2581responsabilit\u00e9": 1622,
  "\u2581organization": 1623,
  "out": 1624,
  "\u2581By": 1625,
  "\u2581UN": 1626,
  "\u2581ta": 1627,
  "\u2581range": 1628,
  "10": 1629,
  "\u2581matter": 1630,
  "\u2581language": 1631,
  "\u2581sub": 1632,
  "\u2581\u00e9tat": 1633,
  "\u2581city": 1634,
  "\u2581others": 1635,
  "\u2581seul": 1636,
  "if": 1637,
  "\u2581ordre": 1638,
  "\u2581Nord": 1639,
  "\u2581South": 1640,
  "\u2581noted": 1641,
  "\u2581publication": 1642,
  "\u2581pratique": 1643,
  "\u2581sociaux": 1644,
  "\u2581relation": 1645,
  "\u2581Treaty": 1646,
  "\u2581Sur": 1647,
  "\u2581Con": 1648,
  "\u2581promouvoir": 1649,
  "\u2581central": 1650,
  "ici": 1651,
  "\u25814.": 1652,
  "\u2581living": 1653,
  "\u2581es": 1654,
  "\u2581past": 1655,
  "isation": 1656,
  "\u2581territoire": 1657,
  "\u2581standard": 1658,
  "\u2581pay": 1659,
  "ler": 1660,
  "\u2581R\u00e8glement": 1661,
  "di": 1662,
  "\u2581soins": 1663,
  "\u2581applications": 1664,
  "\u2581Yeah": 1665,
  "\u2581adopt\u00e9": 1666,
  "\u2581armes": 1667,
  "\u2581low": 1668,
  "\u2581termes": 1669,
  "\u25811999": 1670,
  "\u2581Dr": 1671,
  "ut": 1672,
  "\u2581permanent": 1673,
  "\u2581\u00e9tudes": 1674,
  "\u2581double": 1675,
  "\u2581Fund": 1676,
  "\u2581l\u00e9gislation": 1677,
  "90": 1678,
  "\u2581purpose": 1679,
  "\u2581show": 1680,
  "\u2581Section": 1681,
  "\u2581Action": 1682,
  "\u2581march\u00e9s": 1683,
  "\u2581left": 1684,
  "\u2581status": 1685,
  "ian": 1686,
  "\u2581funding": 1687,
  "\u2581communautaire": 1688,
  "se": 1689,
  "\u2581single": 1690,
  "\u2581Total": 1691,
  "\u2581puis": 1692,
  "ement": 1693,
  "\u25812014": 1694,
  "\u2581Management": 1695,
  "\u2581capacit\u00e9s": 1696,
  "\u2581utiliser": 1697,
  "\u2581actuellement": 1698,
  "\u2581Agreement": 1699,
  "\u2581old": 1700,
  "\u2581directement": 1701,
  "im": 1702,
  "\u2581sustainable": 1703,
  "\u2581pourquoi": 1704,
  "ier": 1705,
  "\u2581companies": 1706,
  "\u2581Sa": 1707,
  "\u2581Organization": 1708,
  "\u2581consideration": 1709,
  "\u2581discussion": 1710,
  "j": 1711,
  "\u2581partenaires": 1712,
  "\u2581rendre": 1713,
  "\u2581Cela": 1714,
  "\u2581Yes": 1715,
  "\u2581phase": 1716,
  "\u2581Add": 1717,
  "\u2581building": 1718,
  "\u2581dur\u00e9e": 1719,
  "\u2581demand\u00e9": 1720,
  "\u2581activity": 1721,
  "ordre": 1722,
  "\u2581petit": 1723,
  "\u2581suivants": 1724,
  "\u2581disposition": 1725,
  "\u2581obtenir": 1726,
  "\u2581investment": 1727,
  ".2": 1728,
  "\u2581objectives": 1729,
  "\u2581missions": 1730,
  "\u2581online": 1731,
  "\u2581Fonds": 1732,
  "\u2581away": 1733,
  "examen": 1734,
  "\u2581Ontario": 1735,
  "\u2581Affairs": 1736,
  "\u2581propre": 1737,
  "\u2581bodies": 1738,
  "\u2581fully": 1739,
  "\u2581relating": 1740,
  "\u2581niveaux": 1741,
  "\u2581analysis": 1742,
  "\u2581yet": 1743,
  "ty": 1744,
  "\u2581authority": 1745,
  "\u2581pr\u00e9": 1746,
  "\u2581crime": 1747,
  "\u2581provision": 1748,
  "\u2581response": 1749,
  "\u2581r\u00e9duire": 1750,
  "Le": 1751,
  "\u2581benefits": 1752,
  "\u258190": 1753,
  "ique": 1754,
  "\u2581propose": 1755,
  "end": 1756,
  "\u2581principe": 1757,
  "\u2581During": 1758,
  "\u2581suivant": 1759,
  "\u2581personal": 1760,
  "industrie": 1761,
  "\u2581trait\u00e9": 1762,
  "\u2581environ": 1763,
  "\u2581regarding": 1764,
  "\u2581Etats": 1765,
  "\u2581lorsqu": 1766,
  "\u2581s\u00e9ance": 1767,
  "\u2581al": 1768,
  "\u2581start": 1769,
  "\u2581porte": 1770,
  "\u2581mean": 1771,
  "\u2581carried": 1772,
  "ness": 1773,
  "\u2581Apr\u00e8s": 1774,
  "\u2581offre": 1775,
  "\u2581providing": 1776,
  "\u2581monitoring": 1777,
  "\u2581Hotel": 1778,
  "\u2581love": 1779,
  "\u2581\u00e9valuation": 1780,
  "\u2581workers": 1781,
  "\u2581Se": 1782,
  "\u2581Air": 1783,
  "\u2581demandes": 1784,
  "\u2581internationaux": 1785,
  "\u2581decisions": 1786,
  "\u2581share": 1787,
  "\u2581r\u00e9ponse": 1788,
  "\u2581Please": 1789,
  "\u2581trouve": 1790,
  "\u2581Division": 1791,
  "\u00c9": 1792,
  "\u2581team": 1793,
  "ais": 1794,
  "\u2581agreed": 1795,
  "\u2581Sud": 1796,
  "\u2581offer": 1797,
  "\u2581side": 1798,
  "\u2581practice": 1799,
  "air": 1800,
  "\u2581suit": 1801,
  "@": 1802,
  "\u2581parmi": 1803,
  "\u2581responsibility": 1804,
  "\u2581military": 1805,
  "In": 1806,
  "\u2581please": 1807,
  "\u25813,": 1808,
  "\u2581El": 1809,
  "20": 1810,
  "\u2581official": 1811,
  "\u2581follow": 1812,
  "\u2581radio": 1813,
  "\u2581publics": 1814,
  "\u2581annual": 1815,
  "\u2581believe": 1816,
  "line": 1817,
  "\u2581recent": 1818,
  "aire": 1819,
  "\u258135": 1820,
  "\u2581effects": 1821,
  "\u2581item": 1822,
  "\u2581Rapporteur": 1823,
  "\u2581African": 1824,
  "\u2581reference": 1825,
  "\u2581bureau": 1826,
  "\u2581ao\u00fbt": 1827,
  "\u2581either": 1828,
  "\u2581Table": 1829,
  "\u2581Where": 1830,
  "\u2581material": 1831,
  "\u2581communities": 1832,
  "\u2581propos": 1833,
  "\u2581early": 1834,
  "ary": 1835,
  "\u2581vraiment": 1836,
  "\u2581repr\u00e9sentant": 1837,
  "\u00e9es": 1838,
  "\u2581conclusions": 1839,
  "\u2581commun": 1840,
  "40": 1841,
  "Z": 1842,
  "\u2581consider": 1843,
  "\u2581n\u00e9cessit\u00e9": 1844,
  "\u2581seule": 1845,
  "\u2581representatives": 1846,
  "\u2581ailleurs": 1847,
  "agit": 1848,
  "\u2581Voir": 1849,
  "AL": 1850,
  "\u2581\u2018": 1851,
  "\u2581r\u00e9duction": 1852,
  "\u2581transition": 1853,
  "\u2581gouvernements": 1854,
  "\u2581night": 1855,
  "\u2581financi\u00e8re": 1856,
  "\u2581nombreuses": 1857,
  "op": 1858,
  "\u2581cultural": 1859,
  "\u2581tell": 1860,
  "\u2581civile": 1861,
  "\u2581mort": 1862,
  "\u2581text": 1863,
  "\u2581(1)": 1864,
  "be": 1865,
  "\u2581lequel": 1866,
  "\u2581agencies": 1867,
  "\u2581foreign": 1868,
  "\u2581strategy": 1869,
  "\u2581situations": 1870,
  "\u2581changements": 1871,
  "\u2581money": 1872,
  "\u2581pr\u00e9sent\u00e9": 1873,
  "mail": 1874,
  "\u2581pr\u00e9vention": 1875,
  "term": 1876,
  "\u2581event": 1877,
  "\u2581environnement": 1878,
  "\u2581needed": 1879,
  "\u2581secteurs": 1880,
  "administration": 1881,
  "\u2581let": 1882,
  "\u2581x": 1883,
  "\u2581pr\u00e9senter": 1884,
  "\u2581York": 1885,
  "\u2581choix": 1886,
  "\u2581conf\u00e9rence": 1887,
  "\u2581presented": 1888,
  "\u2581High": 1889,
  "\u2581commune": 1890,
  "\u2581travailleurs": 1891,
  "\u2581enfant": 1892,
  "\u2581Christ": 1893,
  "\u2581Research": 1894,
  "\u25811998": 1895,
  "\u258145": 1896,
  "\u2581d\u00e9terminer": 1897,
  "\u2581appui": 1898,
  "\u2581greater": 1899,
  "\u2581efficace": 1900,
  "\u2581contexte": 1901,
  "\u2581practices": 1902,
  "\u2581play": 1903,
  "\u2581Annex": 1904,
  "\u2581doing": 1905,
  "\u2581pr\u00e9sident": 1906,
  "\u2581pass\u00e9": 1907,
  "\u2581substances": 1908,
  "je": 1909,
  "\u2581juridique": 1910,
  "\u2581known": 1911,
  "\u2581events": 1912,
  "\u2581Law": 1913,
  "\u25812018": 1914,
  "\u2581Description": 1915,
  "rs": 1916,
  "\u2581telles": 1917,
  "\u2581langue": 1918,
  "\u2581evidence": 1919,
  "\u2581top": 1920,
  "based": 1921,
  "\u2581observations": 1922,
  "\u2581positive": 1923,
  "EN": 1924,
  "\u2581located": 1925,
  "moi": 1926,
  "\u2581US": 1927,
  "\u2581Afrique": 1928,
  "\u2581comit\u00e9": 1929,
  "\u2581Forum": 1930,
  "\u2581income": 1931,
  "\u2581Why": 1932,
  "\u2581reported": 1933,
  "\u00e9nergie": 1934,
  "ure": 1935,
  "avoir": 1936,
  "org": 1937,
  ".3": 1938,
  "\u2581salle": 1939,
  "\u2581derni\u00e8res": 1940,
  "ta": 1941,
  "\u2581short": 1942,
  "\u2581After": 1943,
  "\u2581telle": 1944,
  "\u2581Bank": 1945,
  "\u2581gonna": 1946,
  "\u2581principles": 1947,
  "\u2581\u00c9": 1948,
  "\u2581allow": 1949,
  "\u2581higher": 1950,
  "\u2581Pro": 1951,
  "\u2581federal": 1952,
  "\u2581possibilit\u00e9": 1953,
  "objet": 1954,
  "\u2581Pourquoi": 1955,
  "\u2581Rapport": 1956,
  "\u2581Justice": 1957,
  "\u2581\u00bb.": 1958,
  "\u2581exigences": 1959,
  "\u2581vais": 1960,
  ".4": 1961,
  "\u2581d\u00e9cid\u00e9": 1962,
  "\u2581Note": 1963,
  "\u258180": 1964,
  "\u2581fonctions": 1965,
  "\u2581offers": 1966,
  "\u2581Women": 1967,
  "\u2581province": 1968,
  "\u2581existe": 1969,
  "\u2581populations": 1970,
  "ies": 1971,
  "\u2581utilis\u00e9": 1972,
  "ma": 1973,
  "Q": 1974,
  "son": 1975,
  "\u2581r\u00e9pondre": 1976,
  "\u2581Constitution": 1977,
  "\u2581former": 1978,
  "\u2581average": 1979,
  "\u2581directly": 1980,
  "\u2581sorte": 1981,
  "\u2581r\u00e9unions": 1982,
  "\u25811996": 1983,
  "\u2581victimes": 1984,
  "\u2581Toutefois": 1985,
  "\u2581partners": 1986,
  "ism": 1987,
  ",\"": 1988,
  "\u2581Can": 1989,
  "\u2581complete": 1990,
  "\u2581came": 1991,
  "\u2581Du": 1992,
  "\u2581poste": 1993,
  "\u2581keep": 1994,
  "\u2581expected": 1995,
  "\u00e9ducation": 1996,
  "\u2581200": 1997,
  "\u2581)": 1998,
  "\u2581d\u00e8s": 1999,
  "\u2581requested": 2000,
  "\u2581Don": 2001,
  "30": 2002,
  "\u2581pourraient": 2003,
  "\u2581currently": 2004,
  "\u2581voie": 2005,
  "\u2581didn": 2006,
  "\u2581divers": 2007,
  "\u2581mm": 2008,
  "\u2581LA": 2009,
  "\u2581Some": 2010,
  "\u2581America": 2011,
  "\u2581representative": 2012,
  "\u2581decided": 2013,
  "\u2581location": 2014,
  "\u2581once": 2015,
  "\u2581s\u00e9rie": 2016,
  "\u2581sent": 2017,
  "\u2581statement": 2018,
  ".5": 2019,
  "\u2581route": 2020,
  "\u2581recours": 2021,
  "\u2581importante": 2022,
  "\u2581contenu": 2023,
  "\u2581funds": 2024,
  "\u2581message": 2025,
  "\u2581media": 2026,
  "\u2581later": 2027,
  "\u2581mer": 2028,
  "\u2581biens": 2029,
  "\u2581space": 2030,
  "int\u00e9r\u00eat": 2031,
  "\u2581licence": 2032,
  "\u2581Not": 2033,
  "\u2581re\u00e7u": 2034,
  "\u2581gender": 2035,
  "entreprise": 2036,
  "qui": 2037,
  "\u2581limited": 2038,
  "\u2581tenir": 2039,
  "\u2581suivantes": 2040,
  "50": 2041,
  "\u25815.": 2042,
  "\u2581donne": 2043,
  "\u2581libert\u00e9": 2044,
  "\u2581surface": 2045,
  "annexe": 2046,
  "\u2581live": 2047,
  "\u2581nuclear": 2048,
  "do": 2049,
  "\u2581convient": 2050,
  "\u25811997": 2051,
  "\u2581Selon": 2052,
  "\u2581receive": 2053,
  "ence": 2054,
  "\u2581domestic": 2055,
  "\u2581labour": 2056,
  "\u2581similar": 2057,
  "\u2581notes": 2058,
  "\u2581renforcement": 2059,
  "\u2581aurait": 2060,
  "La": 2061,
  "\u2581opportunity": 2062,
  "exercice": 2063,
  "\u2581(2)": 2064,
  "\u2581tard": 2065,
  "\u2581leave": 2066,
  "\u2581maintien": 2067,
  "\u2581agents": 2068,
  "60": 2069,
  "\u2581concern": 2070,
  "\u2581benefit": 2071,
  "\u2581davantage": 2072,
  "du": 2073,
  "\u2581mod\u00e8le": 2074,
  "\u2581collection": 2075,
  "\u2581across": 2076,
  "\u2581approved": 2077,
  "\u2581portant": 2078,
  "\u2581From": 2079,
  "\u2581bring": 2080,
  "\u2581canadienne": 2081,
  "\u2581rates": 2082,
  "\u2581autochtones": 2083,
  "\u2581fonctionnement": 2084,
  "\u2581week": 2085,
  "\u2581lot": 2086,
  "\u2581principaux": 2087,
  "\u2581kind": 2088,
  "\u2581programs": 2089,
  "iv": 2090,
  "\u2581Que": 2091,
  "\u2581mode": 2092,
  "\u2581designed": 2093,
  "\u2581Mar": 2094,
  "\u2581term": 2095,
  "t\u00e9": 2096,
  "\u2581create": 2097,
  "7": 2098,
  "\u2581passe": 2099,
  "ins": 2100,
  "\u2581purposes": 2101,
  "ak": 2102,
  "\u2581read": 2103,
  "\u2581network": 2104,
  "\u2581m\u00e9thodes": 2105,
  "\u2581canadien": 2106,
  "\u258170": 2107,
  "\u2581d\u00e9l\u00e9gation": 2108,
  "19": 2109,
  "\u2581previous": 2110,
  "\u2581di": 2111,
  "\u2581continued": 2112,
  "\u2581Me": 2113,
  "use": 2114,
  "\u2581website": 2115,
  "\u2581establishment": 2116,
  "15": 2117,
  "\u2581options": 2118,
  "\u2581includes": 2119,
  "\u2581Go": 2120,
  "\u2581regions": 2121,
  "\u2581EN": 2122,
  "\u2581EUR": 2123,
  "\u2581Director": 2124,
  "\u2581Ma": 2125,
  "\u2581DES": 2126,
  "\u2581focus": 2127,
  "\u2581self": 2128,
  "Organisation": 2129,
  "ous": 2130,
  "\u2581return": 2131,
  "\u2581tiers": 2132,
  "entr\u00e9e": 2133,
  "\u2581indiqu\u00e9": 2134,
  "\u2581joint": 2135,
  "\u2581Pas": 2136,
  "nous": 2137,
  "\u2581reporting": 2138,
  "\u2581guerre": 2139,
  "\u2581milieu": 2140,
  "\u2581choses": 2141,
  "\u2581basic": 2142,
  "\u2581photo": 2143,
  "lo": 2144,
  "\u2581professionnelle": 2145,
  "\u2581participer": 2146,
  "\u2581permettant": 2147,
  "ling": 2148,
  "\u2581heart": 2149,
  "\u2581commission": 2150,
  "\u2581500": 2151,
  "\u2581priv\u00e9": 2152,
  "\u2581description": 2153,
  "\u2581suppl\u00e9mentaires": 2154,
  "\u2581Tous": 2155,
  "ise": 2156,
  "\u2581essential": 2157,
  "\u2581thing": 2158,
  "\u2581thus": 2159,
  "\u2581job": 2160,
  "go": 2161,
  "\u2581chef": 2162,
  "\u2581evaluation": 2163,
  "\u2581financi\u00e8res": 2164,
  "\u2581\u00bb,": 2165,
  "\u2581financiers": 2166,
  "\u2581Now": 2167,
  "\u2581Son": 2168,
  "\u2581analyse": 2169,
  "\u2581utilisation": 2170,
  "\u2581durant": 2171,
  "\u2581aura": 2172,
  "\u2581grandes": 2173,
  "\u2581propres": 2174,
  "\u2581v": 2175,
  "\u2581outside": 2176,
  "\u2581minist\u00e8re": 2177,
  "\u2581=": 2178,
  "\u2581film": 2179,
  "\u2581revenu": 2180,
  "\u2581Ministry": 2181,
  "\u2581figure": 2182,
  "\u2581volume": 2183,
  "\u2581multi": 2184,
  "\u2581Jean": 2185,
  "\u2581exchange": 2186,
  "\u2581Policy": 2187,
  "\u2581Secretariat": 2188,
  "\u2581infrastructure": 2189,
  "\u2581Page": 2190,
  "\u2581lead": 2191,
  "\u2581added": 2192,
  "\u2581r\u00e9alisation": 2193,
  "`": 2194,
  "\u2581conflict": 2195,
  "\u25812005,": 2196,
  "m\u00eame": 2197,
  "\u258132": 2198,
  "\u2581planning": 2199,
  "\u2581disponible": 2200,
  "\u2581pauvret\u00e9": 2201,
  "\u2581crit\u00e8res": 2202,
  "pro": 2203,
  "\u2581moyenne": 2204,
  "\u2581objectif": 2205,
  "\u2581Membres": 2206,
  "\u2581web": 2207,
  "\u2581parler": 2208,
  "\u2581issued": 2209,
  "\u2581sure": 2210,
  "\u2581John": 2211,
  "one": 2212,
  "\u2581Program": 2213,
  "\u25811995": 2214,
  "\u2581relatif": 2215,
  "0": 2216,
  "\u2581d\u00e9bat": 2217,
  "\u2581valeurs": 2218,
  "\u2581Royaume": 2219,
  "\u2581mat\u00e9riel": 2220,
  "\u2581changement": 2221,
  "\u2581instrument": 2222,
  "\u2581model": 2223,
  "\u2581agreements": 2224,
  "25": 2225,
  "\u2581contained": 2226,
  "\u2581comp\u00e9tences": 2227,
  "\u2581violations": 2228,
  "\u25812016": 2229,
  "\u2581identified": 2230,
  "\u2581fut": 2231,
  "01": 2232,
  "\u2581rural": 2233,
  "\u25812006,": 2234,
  "\u2581relatifs": 2235,
  "\u2581studies": 2236,
  "\u2581propositions": 2237,
  "\u2581train": 2238,
  "\u2581economy": 2239,
  "mer": 2240,
  "\u2581itself": 2241,
  "\u2581associated": 2242,
  "\u2581troisi\u00e8me": 2243,
  "\u2581terre": 2244,
  "\u2581North": 2245,
  "\u2581internal": 2246,
  "70": 2247,
  "\u2581int\u00e9rieur": 2248,
  "\u2581Germany": 2249,
  "\u2581Alors": 2250,
  "da": 2251,
  "ations": 2252,
  "\u2581While": 2253,
  "\u2581cm": 2254,
  "\u2581parts": 2255,
  "\u2581opportunities": 2256,
  "\u2581corps": 2257,
  "\u2581Association": 2258,
  "\u2581created": 2259,
  "\u2581See": 2260,
  "min": 2261,
  "ES": 2262,
  "8": 2263,
  "\u2581art": 2264,
  "\u2581paid": 2265,
  "\u2581discussions": 2266,
  "\u2581death": 2267,
  "\u2581Since": 2268,
  "\u2581Avec": 2269,
  "\u2581objective": 2270,
  "\u2581strong": 2271,
  "dessus": 2272,
  "\u2581r\u00e9serve": 2273,
  "\u2581lack": 2274,
  "\u2581war": 2275,
  "\u2581employees": 2276,
  "assurer": 2277,
  "\u2581visit": 2278,
  "\u2581constitue": 2279,
  "\u2581materials": 2280,
  "\u2581succ\u00e8s": 2281,
  "\u25812004,": 2282,
  "\u2581facilities": 2283,
  "\u2581forms": 2284,
  "\u2581demander": 2285,
  "\u2581\u00e9tabli": 2286,
  "activit\u00e9": 2287,
  "\u2581University": 2288,
  "\u2581ad": 2289,
  "\u2581technologie": 2290,
  "\u2581village": 2291,
  "\u2581organes": 2292,
  "\u2581principle": 2293,
  "ization": 2294,
  "\u2581\u00e9tude": 2295,
  "ite": 2296,
  "\u2581act": 2297,
  "\u2581conseil": 2298,
  "95": 2299,
  "\u2581operation": 2300,
  "\u2581expressed": 2301,
  "\u2581co\u00fbt": 2302,
  "\u2581behalf": 2303,
  "\u2581r\u00e9gional": 2304,
  "\u2581s\u00fbr": 2305,
  "origine": 2306,
  "ana": 2307,
  "\u2581asked": 2308,
  "\u2581ever": 2309,
  "\u2581stock": 2310,
  "\u2581forward": 2311,
  "80": 2312,
  "\u2581Executive": 2313,
  "\u2581His": 2314,
  "\u2581preuve": 2315,
  "\u2581structures": 2316,
  "\u2581serious": 2317,
  "\u2581via": 2318,
  "\u2581seen": 2319,
  "\u2581criminal": 2320,
  "\u2581original": 2321,
  "ants": 2322,
  "\u2581rapide": 2323,
  "\u2581micro": 2324,
  "18": 2325,
  "\u2581head": 2326,
  "\u2581client": 2327,
  "\u2581establish": 2328,
  "\u2581items": 2329,
  "\u2581ET": 2330,
  "\u2581prot\u00e9ger": 2331,
  "\u2581torture": 2332,
  "\u2581c\u00f4t\u00e9": 2333,
  "\u2581priority": 2334,
  "\u2581entreprise": 2335,
  "\u2581conclusion": 2336,
  "\u2581Decision": 2337,
  "\u2581citoyens": 2338,
  "\u2581faisant": 2339,
  "\u2581formes": 2340,
  "\u2581bar": 2341,
  "\u2581gaz": 2342,
  "\u2581charg\u00e9": 2343,
  "\u2581fran\u00e7ais": 2344,
  "\u2581Party": 2345,
  "\u2581words": 2346,
  "\u2581postes": 2347,
  "\u2581rapidement": 2348,
  "\u2581semble": 2349,
  "\u2581initial": 2350,
  "\u2581gouvernementale": 2351,
  "\u2581stay": 2352,
  "\u2581China": 2353,
  "\u2581employ\u00e9s": 2354,
  "\u25811994": 2355,
  "\u2581wish": 2356,
  "\u2581proposals": 2357,
  "\u2581Protocol": 2358,
  "\u2581entitled": 2359,
  "\u2581whose": 2360,
  "\u2581Qui": 2361,
  "\u2581faible": 2362,
  "\u2581transfer": 2363,
  "\u2581poverty": 2364,
  "\u2581para": 2365,
  "\u2581plut\u00f4t": 2366,
  "\u2581garantir": 2367,
  "of": 2368,
  "\u2581works": 2369,
  "\u2581rather": 2370,
  "\u2581Central": 2371,
  "\u25812003,": 2372,
  "\u2581Cependant": 2373,
  "\u2581veut": 2374,
  "\u2581applied": 2375,
  "\u2581students": 2376,
  "\u2581soci\u00e9t\u00e9s": 2377,
  "\u2581approche": 2378,
  "\u2581derniers": 2379,
  "\u258133": 2380,
  "\u2581prevent": 2381,
  "\u2581reduce": 2382,
  "li": 2383,
  "\u2581Commissioner": 2384,
  "\u2581lois": 2385,
  "\u2581San": 2386,
  "\u2581num\u00e9ro": 2387,
  "\u2581port": 2388,
  "\u2581statut": 2389,
  "\u2581institution": 2390,
  "\u2581obligation": 2391,
  "\u2581voyage": 2392,
  "\u2581secr\u00e9tariat": 2393,
  "\u2581emploi": 2394,
  "\u2581Depuis": 2395,
  "\u2581implement": 2396,
  "\u2581arrangements": 2397,
  "der": 2398,
  "\u2581station": 2399,
  "\u2581longer": 2400,
  "\u2581semaine": 2401,
  "\u2581pr\u00e9sence": 2402,
  "\u2581effort": 2403,
  "\u2581publiques": 2404,
  "\u2581published": 2405,
  "\u2581modifications": 2406,
  "\u2581carte": 2407,
  "\u2581along": 2408,
  "\u2581overall": 2409,
  "\u2581Notre": 2410,
  "\u2581prepared": 2411,
  "\u2581individuals": 2412,
  "\u2581cycle": 2413,
  "\u2581sp\u00e9ciale": 2414,
  "\u2581commitment": 2415,
  "\u2581Bar": 2416,
  "\u2581vente": 2417,
  "it\u00e9": 2418,
  "\u2581photos": 2419,
  "\u2581challenges": 2420,
  "\u2581diverses": 2421,
  "\u2581Votre": 2422,
  "\u00e9tablissement": 2423,
  "\u2581Kingdom": 2424,
  "35": 2425,
  "\u2581pense": 2426,
  "\u2581li\u00e9s": 2427,
  "\u2581fichier": 2428,
  "\u2581size": 2429,
  "\u2581vision": 2430,
  "\u2581medical": 2431,
  "\u2581achieve": 2432,
  "\u2581grands": 2433,
  "avis": 2434,
  "\u2581appel": 2435,
  "\u2581Est": 2436,
  "\u2581propri\u00e9t\u00e9": 2437,
  "\u2581tableau": 2438,
  "\u2581comprehensive": 2439,
  "\u2581themselves": 2440,
  "\u2581regulations": 2441,
  "\u2581addressed": 2442,
  "\u2581jeu": 2443,
  "ative": 2444,
  "\u2581\u00e9": 2445,
  "\u00e8me": 2446,
  "\u2581caract\u00e8re": 2447,
  "\u2581responsable": 2448,
  "CN": 2449,
  "\u2581Trade": 2450,
  "tro": 2451,
  "\u2581tour": 2452,
  "\u2581meilleure": 2453,
  "\u2581format": 2454,
  "\u2581American": 2455,
  "\u2581d\u00e9lai": 2456,
  "\u2581cons\u00e9quent": 2457,
  "\u2581surtout": 2458,
  "\u2581statistiques": 2459,
  "\u2581makes": 2460,
  "\u2581\u00e9lev\u00e9": 2461,
  "\u2581understand": 2462,
  "em": 2463,
  "\u2581travel": 2464,
  "\u25814,": 2465,
  "\u2581regular": 2466,
  "\u2581concept": 2467,
  "ated": 2468,
  "\u2581comprend": 2469,
  "ig": 2470,
  "\u2581ait": 2471,
  "\u2581travers": 2472,
  "\u2581delegation": 2473,
  "\u2581marchandises": 2474,
  "\u2581soon": 2475,
  "\u2581Be": 2476,
  "\u2581front": 2477,
  "\u2581li\u00e9es": 2478,
  "\u2581thought": 2479,
  "\u2581passer": 2480,
  "US": 2481,
  "\u2581faites": 2482,
  "\u2581prices": 2483,
  "\u25812002,": 2484,
  "\u2581m\u00e9canismes": 2485,
  "12": 2486,
  "\u2581throughout": 2487,
  "\u2581guide": 2488,
  "\u25816.": 2489,
  "\u2581rule": 2490,
  "\u2581continuer": 2491,
  "\u2581d\u00e9clar\u00e9": 2492,
  "\u2581pr\u00e9vu": 2493,
  "\u2581equal": 2494,
  "\u2581encourage": 2495,
  "ga": 2496,
  "\u2581ensuite": 2497,
  "\u258136": 2498,
  "\u2581difficult": 2499,
  "\u2581nuit": 2500,
  "ina": 2501,
  "\u2581criteria": 2502,
  "mo": 2503,
  "\u2581half": 2504,
  "\u00e9tat": 2505,
  "\u2581brought": 2506,
  "\u2581Inc": 2507,
  "\u2581bas": 2508,
  "\u2581bio": 2509,
  "\u2581Protection": 2510,
  "\u2581places": 2511,
  "\u2581exp\u00e9rience": 2512,
  "\u2581Regulations": 2513,
  "\u2581consommation": 2514,
  "\u2581history": 2515,
  "\u2581meilleur": 2516,
  "\u2581comprendre": 2517,
  "\u2581utilis\u00e9s": 2518,
  "\u2581faciliter": 2519,
  "\u2581reduction": 2520,
  "\u2581crois": 2521,
  "eux": 2522,
  "\u2581aller": 2523,
  "\u2581exercice": 2524,
  "\u2581D\u00e9claration": 2525,
  "\u2581sp\u00e9cifiques": 2526,
  "\u2581professional": 2527,
  "\u2581cat\u00e9gorie": 2528,
  "\u2581centrale": 2529,
  "\u2581concurrence": 2530,
  "\u25812000,": 2531,
  "\u2581quant": 2532,
  "\u2581pr\u00e9voit": 2533,
  "\u2581directeur": 2534,
  "\u2581\u00e9ducation": 2535,
  "\u2581v\u00e9hicules": 2536,
  "\u2581annexe": 2537,
  "importance": 2538,
  "\u25812007,": 2539,
  "IC": 2540,
  "\u2581chacun": 2541,
  "\u2581fils": 2542,
  "\u2581directives": 2543,
  "\u2581ago": 2544,
  "\u2581stage": 2545,
  "\u2581p\u00eache": 2546,
  "\u2581require": 2547,
  "$": 2548,
  "\u2581cr\u00e9\u00e9": 2549,
  "\u2581matters": 2550,
  "\u2581mandate": 2551,
  "\u2581remain": 2552,
  "\u2581pursuant": 2553,
  "\u2581peuple": 2554,
  "\u2581Part": 2555,
  "\u2581supply": 2556,
  "\u2581p\u00e8re": 2557,
  "IT": 2558,
  "ting": 2559,
  "\u2581Free": 2560,
  "\u2581details": 2561,
  "den": 2562,
  "CEE": 2563,
  "\u2581Man": 2564,
  "\u2581hotel": 2565,
  "\u2581protect": 2566,
  "\u2581Ms": 2567,
  "(1)": 2568,
  "ex\u00e9cution": 2569,
  "ol": 2570,
  "\u2581tenue": 2571,
  "\u2581Secr\u00e9tariat": 2572,
  "\u2581road": 2573,
  "\u2581\u00e9tablissements": 2574,
  "\u2581balance": 2575,
  "\u258148": 2576,
  "\u2581citizens": 2577,
  "\u2581occasion": 2578,
  "\u2581science": 2579,
  "\u2581Montr\u00e9al": 2580,
  "\u2581financier": 2581,
  "\u2581feel": 2582,
  "\u2581facteurs": 2583,
  "year": 2584,
  "\u2581sessions": 2585,
  "\u2581contrat": 2586,
  "\u2581activit\u00e9": 2587,
  "exploitation": 2588,
  "\u2581series": 2589,
  "\u2581mind": 2590,
  "\u2581connaissances": 2591,
  "lin": 2592,
  "eurs": 2593,
  "\u2581langues": 2594,
  "\u2581Fran\u00e7ais": 2595,
  "\u2581prior": 2596,
  "\u2581methods": 2597,
  "\u2581fond": 2598,
  "\u2581pr\u00e9vues": 2599,
  "\u2581comments": 2600,
  "by": 2601,
  "\u2581soumis": 2602,
  "\u2581images": 2603,
  "\u2581requests": 2604,
  "\u2581House": 2605,
  "analyse": 2606,
  "96": 2607,
  "\u2581Accueil": 2608,
  "27": 2609,
  "Uni": 2610,
  "ka": 2611,
  "\u2581humaines": 2612,
  "vis": 2613,
  "ang": 2614,
  "\u2581petite": 2615,
  "\u2581big": 2616,
  "\u2581accords": 2617,
  "\u2581Let": 2618,
  "\u2581values": 2619,
  "\u2581planification": 2620,
  "\u25812001,": 2621,
  "\u2581actes": 2622,
  "28": 2623,
  "\u2581understanding": 2624,
  "\u2581hard": 2625,
  "\u2581Israel": 2626,
  "\u2581steps": 2627,
  "\u2581r\u00e9fugi\u00e9s": 2628,
  "\u2581mati\u00e8res": 2629,
  "\u2581Italy": 2630,
  "\u2581raisons": 2631,
  "\u2581independent": 2632,
  "\u2581bois": 2633,
  "\u2581processes": 2634,
  "\u2581k": 2635,
  "for": 2636,
  "ah": 2637,
  "\u2581net": 2638,
  "\u2581Force": 2639,
  "\u2581chance": 2640,
  "\u2581responsables": 2641,
  "\u2581possibilit\u00e9s": 2642,
  "\u2581IV": 2643,
  "\u2581competition": 2644,
  "\u2581stated": 2645,
  "\u2581Under": 2646,
  "\u2581laws": 2647,
  "\u25811990": 2648,
  "\u2581nations": 2649,
  "\u2581difficile": 2650,
  "des": 2651,
  "\u2581Environment": 2652,
  "\u2581d\u00e9fense": 2653,
  "\u2581locaux": 2654,
  "\u2581Monsieur": 2655,
  "\u2581Quebec": 2656,
  "\u2581terrain": 2657,
  "13": 2658,
  "\u2581species": 2659,
  "\u2581distance": 2660,
  "\u2581vehicle": 2661,
  "ux": 2662,
  "\u2581strengthen": 2663,
  "\u2581cookies": 2664,
  "\u2581Search": 2665,
  "\u2581lumi\u00e8re": 2666,
  "\u2581states": 2667,
  "\u2581East": 2668,
  "\u2581importants": 2669,
  "\u2581examiner": 2670,
  "\u2581libre": 2671,
  "ni": 2672,
  "\u2581record": 2673,
  "\u2581option": 2674,
  "\u2581covered": 2675,
  "17": 2676,
  "\u2581enough": 2677,
  "32": 2678,
  "\u2581industrial": 2679,
  "Add": 2680,
  "ti": 2681,
  "\u2581travailler": 2682,
  "organisation": 2683,
  "\u2581propos\u00e9": 2684,
  "\u2581sociales": 2685,
  "\u2581interests": 2686,
  "\u00ae": 2687,
  "\u2581payment": 2688,
  "\u2581chapitre": 2689,
  "\u2581\u00e9missions": 2690,
  "16": 2691,
  "\u2581cr\u00e9dit": 2692,
  "EEC": 2693,
  "ri": 2694,
  "\u2581search": 2695,
  "\u2581provinces": 2696,
  "\u2581toutefois": 2697,
  "\u2581reform": 2698,
  "\u2581reason": 2699,
  "\u2581suivre": 2700,
  "\u2581month": 2701,
  "\u2581likely": 2702,
  "\u2581reasons": 2703,
  "\u2581Support": 2704,
  "\u2581haute": 2705,
  "\u2581jobs": 2706,
  "\u2581Protocole": 2707,
  "\u2581City": 2708,
  "\u2581quel": 2709,
  "time": 2710,
  "\u2581creation": 2711,
  "11": 2712,
  "\u2581hope": 2713,
  "\u2581recommended": 2714,
  "\u2581conducted": 2715,
  "\u2581prend": 2716,
  "\u2581transports": 2717,
  "\u2581chambres": 2718,
  "efficacit\u00e9": 2719,
  "\u2581elements": 2720,
  "vi": 2721,
  "\u2581chambre": 2722,
  "\u2581dispose": 2723,
  "\u2581humanitarian": 2724,
  "\u2581sea": 2725,
  "enseignement": 2726,
  "\u00e9conomie": 2727,
  "\u2581lignes": 2728,
  "nd": 2729,
  "\u2581vol": 2730,
  "rie": 2731,
  "\u2581crimes": 2732,
  "ating": 2733,
  "\u2581Mo": 2734,
  "ED": 2735,
  "\u2581Lorsque": 2736,
  "\u2581indicated": 2737,
  "\u2581supported": 2738,
  "\u2581fonctionnaires": 2739,
  "\u2581concerns": 2740,
  "\u2581lettre": 2741,
  "\u2581jouer": 2742,
  "\u25817.": 2743,
  "\u2581strategic": 2744,
  "\u2581Chine": 2745,
  "\u00e9laboration": 2746,
  "\u2581caract\u00e9ristique": 2747,
  "IS": 2748,
  "\u2581committed": 2749,
  "\u2581Paul": 2750,
  "\u2581normal": 2751,
  "\u2581email": 2752,
  "\u2581confiance": 2753,
  "ized": 2754,
  "\u2581\u00e9lectronique": 2755,
  "\u2581true": 2756,
  "\u2581locales": 2757,
  "\u2581image": 2758,
  "\u2581sectors": 2759,
  "\u2581faits": 2760,
  "-2": 2761,
  "\u2581News": 2762,
  "\u2581near": 2763,
  "\u2581increasing": 2764,
  "\u2581priorit\u00e9s": 2765,
  "tin": 2766,
  "\u2581TV": 2767,
  "\u2581defined": 2768,
  "\u00e9gard": 2769,
  "\u2581f\u00e9d\u00e9ral": 2770,
  "\u2581int\u00e9r\u00eats": 2771,
  "-1": 2772,
  "\u2581convention": 2773,
  "\u2581markets": 2774,
  "97": 2775,
  "\u2581modification": 2776,
  "\u2581circumstances": 2777,
  "\u2581AND": 2778,
  "\u2581informed": 2779,
  "\u2581factors": 2780,
  "\u2581comptes": 2781,
  "\u2581contribute": 2782,
  "pe": 2783,
  "\u2581software": 2784,
  "\u2581went": 2785,
  "45": 2786,
  "net": 2787,
  "\u2581completed": 2788,
  "\u2581engagement": 2789,
  "\u2581actuelle": 2790,
  "\u2581takes": 2791,
  "\u2581interne": 2792,
  "\u2581transfert": 2793,
  "\u25812019": 2794,
  "\u2581oil": 2795,
  "\u2581game": 2796,
  "\u2581maintenance": 2797,
  "\u2581anglais": 2798,
  "\u2581contract": 2799,
  "\u2581composition": 2800,
  "\u2581m\u00e9dias": 2801,
  "\u2581ways": 2802,
  "\u2581lower": 2803,
  "\u2581plein": 2804,
  "\u2581menu": 2805,
  "\u2581cover": 2806,
  "urs": 2807,
  "he": 2808,
  "\u2581venir": 2809,
  "\u2581positions": 2810,
  "ha": 2811,
  "\u2581ai": 2812,
  "io": 2813,
  "\u25812017": 2814,
  "\u258134": 2815,
  "d\u00e9": 2816,
  "\u2581ask": 2817,
  "\u2581climate": 2818,
  "\u2581families": 2819,
  "\u2581told": 2820,
  "\u2581satisfaction": 2821,
  "\u2581juridiques": 2822,
  "\u2581m\u00e9thode": 2823,
  "\u2581documentation": 2824,
  "\u00bb.": 2825,
  "ville": 2826,
  "\u2581\u00e9tablir": 2827,
  "\u2581manner": 2828,
  "\u2581installations": 2829,
  "tic": 2830,
  "tra": 2831,
  "CO": 2832,
  "ko": 2833,
  "\u2581deal": 2834,
  "\u2581n\u00e9gociations": 2835,
  "\u2581coming": 2836,
  "\u2581gas": 2837,
  "\u2581Prix": 2838,
  "\u2581operational": 2839,
  "\u2581mg": 2840,
  "\u2581freedom": 2841,
  "\u2581follows": 2842,
  "\u2581letter": 2843,
  "\u2581beginning": 2844,
  "\u2581communaut\u00e9s": 2845,
  "+": 2846,
  "\u2581Pays": 2847,
  "\u2581petits": 2848,
  "14": 2849,
  ".7": 2850,
  "\u2581Di": 2851,
  "\u2581delivery": 2852,
  "\u2581avantages": 2853,
  "44": 2854,
  "\u2581conseils": 2855,
  "\u2581crise": 2856,
  "\u2581marque": 2857,
  "\u2581According": 2858,
  "\u2581West": 2859,
  "55": 2860,
  "\u2581Ainsi": 2861,
  "ge": 2862,
  "\u2581vrai": 2863,
  "49": 2864,
  "\u2581300": 2865,
  "\u2581retour": 2866,
  "\u2581consultatif": 2867,
  "\u2581pages": 2868,
  "\u2581PC": 2869,
  "\u2581lesquelles": 2870,
  "\u2581R\u00e9": 2871,
  "\u2581looking": 2872,
  "\u2581sup\u00e9rieur": 2873,
  "ront": 2874,
  "ER": 2875,
  "\u2581Federal": 2876,
  "\u2581written": 2877,
  "men": 2878,
  "nes": 2879,
  "\u2581taille": 2880,
  "\u2581mechanisms": 2881,
  "port": 2882,
  "\u2581\u00e9crit": 2883,
  "\u2581navigation": 2884,
  "\u2581strat\u00e9gies": 2885,
  "24": 2886,
  "\u2581Institute": 2887,
  "\u2581intended": 2888,
  "tte": 2889,
  "\u2581implemented": 2890,
  "37": 2891,
  "\u2581absence": 2892,
  "\u2581Quand": 2893,
  "\u2581Jesus": 2894,
  "\u2581nothing": 2895,
  "31": 2896,
  "\u2581connection": 2897,
  "\u25812008,": 2898,
  "\u2581d\u00e9finition": 2899,
  "\u2581pi\u00e8ces": 2900,
  "\u2581trans": 2901,
  "\u2581vise": 2902,
  "qu": 2903,
  "\u2581victims": 2904,
  "\u2581paper": 2905,
  "\u2581strat\u00e9gique": 2906,
  "\u2581Of": 2907,
  "\u2581everything": 2908,
  "\u25815,": 2909,
  "2,": 2910,
  "\u2581prison": 2911,
  "\u2581affected": 2912,
  "ale": 2913,
  "ab": 2914,
  "\u258137": 2915,
  "\u2581Cet": 2916,
  "\u2581r\u00e9glementation": 2917,
  "\u2581nucl\u00e9aires": 2918,
  "\u2581ground": 2919,
  "ley": 2920,
  "day": 2921,
  "\u25811993": 2922,
  "\u2581Banque": 2923,
  "\u2581violation": 2924,
  "\u2581lesquels": 2925,
  "\u2581almost": 2926,
  "\u2581integration": 2927,
  "\u2581anything": 2928,
  "-4": 2929,
  "\u2581pension": 2930,
  "\u2581fais": 2931,
  "\u00e9tude": 2932,
  "\u2581r\u00e9forme": 2933,
  "\u2581Inter": 2934,
  "\u2581Ajouter": 2935,
  "\u2581conservation": 2936,
  "\u2581d\u00fb": 2937,
  "\u2581billion": 2938,
  "21": 2939,
  "\u2581guidelines": 2940,
  "\u2581determined": 2941,
  "\u2581move": 2942,
  "-3": 2943,
  "\u2581assez": 2944,
  "\u2581conduct": 2945,
  "\u2581extent": 2946,
  "\u2581majority": 2947,
  "\u2581HIV": 2948,
  "ub": 2949,
  "\u2581g\u00e9n\u00e9ralement": 2950,
  "\u2581v\u00e9rification": 2951,
  "48": 2952,
  "\u2581remains": 2953,
  "lu": 2954,
  "\u2581style": 2955,
  "\u2581conflit": 2956,
  "Re": 2957,
  "\u2581Ad": 2958,
  "bo": 2959,
  "\u2581views": 2960,
  "\u2581m\u00e8re": 2961,
  "\u2581(1": 2962,
  "Les": 2963,
  "\u2581approval": 2964,
  "\u2581primary": 2965,
  "\u2581compliance": 2966,
  "\u2581presse": 2967,
  "\u2581Education": 2968,
  "\u2581agricultural": 2969,
  "\u2581physical": 2970,
  "\u2581Iraq": 2971,
  "\u2581LE": 2972,
  "\u2581proportion": 2973,
  "\u2581Canadians": 2974,
  "IN": 2975,
  "\u2581exercise": 2976,
  "\u2581r\u00e9gionales": 2977,
  "\u258139": 2978,
  "eu": 2979,
  "\u2581J\u00e9sus": 2980,
  "entre": 2981,
  "\u2581Wi": 2982,
  "\u2581peine": 2983,
  "Office": 2984,
  "\u2581implementing": 2985,
  "ot": 2986,
  "\u2581provisoire": 2987,
  "\u2581pr\u00e9sentation": 2988,
  "000": 2989,
  "\u2581provincial": 2990,
  "\u2581conflits": 2991,
  "\u2581objet": 2992,
  "\u2581users": 2993,
  "\u2581instance": 2994,
  "car": 2995,
  "\u2581Windows": 2996,
  "argent": 2997,
  "39": 2998,
  "\u2581described": 2999,
  "\u2581prevention": 3000,
  "\u2581debate": 3001,
  "\u2581Bo": 3002,
  "\u2581integrated": 3003,
  "\u2581poids": 3004,
  "\u2581stop": 3005,
  "\u2581book": 3006,
  "\u2581d\u00e9part": 3007,
  "\u258165": 3008,
  "\u2581step": 3009,
  "ING": 3010,
  "\u2581EC": 3011,
  "\u2581turn": 3012,
  "\u2581mobile": 3013,
  "\u2581Ar": 3014,
  "isme": 3015,
  "98": 3016,
  "\u2581185": 3017,
  "\u2581uniquement": 3018,
  "\u2581augmentation": 3019,
  "\u2581Here": 3020,
  "\u2581paiement": 3021,
  "ow": 3022,
  "\u2581r\u00e9seaux": 3023,
  "66": 3024,
  "\u2581repr\u00e9sente": 3025,
  "\u2581crisis": 3026,
  "\u2581familles": 3027,
  "\u2581t\u00eate": 3028,
  "75": 3029,
  "\u2581strategies": 3030,
  "\u2581modifier": 3031,
  "\u2581Ottawa": 3032,
  "\u2581Declaration": 3033,
  "\u2581territory": 3034,
  "\u2581parti": 3035,
  "\u2581Then": 3036,
  "\u2581talk": 3037,
  "\u2581influence": 3038,
  "\u2581awareness": 3039,
  "\u2581clearly": 3040,
  "\u2581determine": 3041,
  "47": 3042,
  "\u258175": 3043,
  "\u2581entendu": 3044,
  "\u2581majorit\u00e9": 3045,
  "\u2581estime": 3046,
  "\u2581cross": 3047,
  "\u2581amended": 3048,
  "\u2581europ\u00e9ennes": 3049,
  "mm": 3050,
  "\u2581enable": 3051,
  "\u2581external": 3052,
  "\u2581unit": 3053,
  "99": 3054,
  "\u2581Art": 3055,
  "\u2581fundamental": 3056,
  "ek": 3057,
  "\u2581British": 3058,
  "\u2581success": 3059,
  "\u2581says": 3060,
  "://": 3061,
  "\u2581expert": 3062,
  "\u2581m\u00eames": 3063,
  "\u2581financing": 3064,
  "\u2581credit": 3065,
  "\u2581filles": 3066,
  "\u2581collective": 3067,
  "\u2581combat": 3068,
  "\u00e8re": 3069,
  "\u2581loss": 3070,
  "\u2581atteindre": 3071,
  "\u2581devons": 3072,
  "\u2581run": 3073,
  "\u2581acts": 3074,
  "\u2581Luxembourg": 3075,
  "\u2581identify": 3076,
  "\u2581Review": 3077,
  "33": 3078,
  "26": 3079,
  "\u2581dix": 3080,
  "\u2581associations": 3081,
  "\u2581militaire": 3082,
  "\u2581secretariat": 3083,
  "assurance": 3084,
  "SC": 3085,
  "\u2581#": 3086,
  "\u2581Canadiens": 3087,
  "\u2013": 3088,
  "ish": 3089,
  "\u2581autant": 3090,
  "\u2581fer": 3091,
  "\u2581peuples": 3092,
  "\u258138": 3093,
  "36": 3094,
  "\u2581intention": 3095,
  ".6": 3096,
  "iste": 3097,
  "\u2581clairement": 3098,
  "\u2581committee": 3099,
  "\u2581difficult\u00e9s": 3100,
  "\u2581sud": 3101,
  "\u2581produced": 3102,
  "oc": 3103,
  "\u2581manque": 3104,
  "occasion": 3105,
  "\u2581humains": 3106,
  "\u2581German": 3107,
  "\u2581contient": 3108,
  "\u2581Russian": 3109,
  "\u2581weight": 3110,
  "\u2581Ta": 3111,
  "\u2581petites": 3112,
  "\u2581ONU": 3113,
  "\u2581puisse": 3114,
  "\u2581genre": 3115,
  "34": 3116,
  "\u2581s\u00e9lection": 3117,
  "\u2581Per": 3118,
  "\u2581led": 3119,
  "\u2581easy": 3120,
  "\u2581Portugal": 3121,
  "\u2581won": 3122,
  "\u2581euro": 3123,
  "BAR": 3124,
  "\u2581conception": 3125,
  "abord": 3126,
  "\u2581schools": 3127,
  "\u2581connaissance": 3128,
  "\u2581exploitation": 3129,
  "\u2581dose": 3130,
  "\u2581pleinement": 3131,
  "\u2581traditional": 3132,
  "\u2581Regional": 3133,
  "\u2581engagements": 3134,
  "\u2581Global": 3135,
  "objectif": 3136,
  "\u2581System": 3137,
  "\u2581Are": 3138,
  "41": 3139,
  "08": 3140,
  "\u2581detailed": 3141,
  "\u2581s\u00e9jour": 3142,
  "\u2581video": 3143,
  "\u2581maladie": 3144,
  "\u2581Her": 3145,
  "\u2581operating": 3146,
  "\u2581pouvoirs": 3147,
  "we": 3148,
  "23": 3149,
  "\u2581shown": 3150,
  "\u2581communautaires": 3151,
  "\u2581electronic": 3152,
  "\u2581requires": 3153,
  "\u2581r\u00e9aliser": 3154,
  "appui": 3155,
  "\u2581v\u00e9hicule": 3156,
  "\u2581::": 3157,
  "val": 3158,
  "\u2581offices": 3159,
  "\u2581r\u00e9gionaux": 3160,
  "\u2581Russie": 3161,
  "\u2581weapons": 3162,
  "ov": 3163,
  "\u2581ensuring": 3164,
  "\u2581causes": 3165,
  "\u2581nord": 3166,
  "\u2581contribuer": 3167,
  "\u2581substance": 3168,
  "\u2581investissements": 3169,
  "pa": 3170,
  "\u2581perspective": 3171,
  "ante": 3172,
  "fi": 3173,
  "\u00e9quipe": 3174,
  "\u2581sound": 3175,
  "\u2581movement": 3176,
  "\u2581facilitate": 3177,
  "ran": 3178,
  "\u2581quelle": 3179,
  "\u2581tools": 3180,
  "\u2581audit": 3181,
  "\u2581veiller": 3182,
  "\u2581annuel": 3183,
  "\u2581d\u00e9velopper": 3184,
  "\u2581conna\u00eetre": 3185,
  "\u25818.": 3186,
  "05": 3187,
  "dessous": 3188,
  "\u2581skills": 3189,
  "\u2581terrorisme": 3190,
  "09": 3191,
  "\u2581Grand": 3192,
  "\u2581importantes": 3193,
  "\u2581poursuivre": 3194,
  "\u2581carry": 3195,
  ".9": 3196,
  "\u2581priorities": 3197,
  "\u2581D\u00e9partement": 3198,
  "\u00bb,": 3199,
  "\u2581Sant\u00e9": 3200,
  "\u2581\u00a9": 3201,
  "\u2581association": 3202,
  "\u2581int\u00e9r\u00eat": 3203,
  "\u2581suivante": 3204,
  "\u2581cependant": 3205,
  "\u2581David": 3206,
  "22": 3207,
  "\u2581transmission": 3208,
  "\u2581compl\u00e8te": 3209,
  "\u2581Facebook": 3210,
  "\u2581amendments": 3211,
  "\u258142": 3212,
  "EU": 3213,
  "\u2581achieved": 3214,
  "\u2581publications": 3215,
  "65": 3216,
  "TM": 3217,
  "\u2581voiture": 3218,
  "43": 3219,
  "\u2581r\u00e9sultat": 3220,
  "\u2581machine": 3221,
  "\u2581wide": 3222,
  "\u2581comes": 3223,
  "\u2581religion": 3224,
  "\u2581conference": 3225,
  "sur": 3226,
  "ba": 3227,
  "int\u00e9rieur": 3228,
  "\u2581classe": 3229,
  "\u2581demand": 3230,
  "\u2581youth": 3231,
  "\u2581Governments": 3232,
  "\u2581Toronto": 3233,
  "\u2581idea": 3234,
  "\u2581submit": 3235,
  "\u2581selection": 3236,
  "\u2581Although": 3237,
  "\u2581principales": 3238,
  "\u2581liens": 3239,
  "\u2581measure": 3240,
  "\u2581negotiations": 3241,
  "\u2581IN": 3242,
  "\u258155": 3243,
  "ong": 3244,
  "\u2581participate": 3245,
  "\u2581About": 3246,
  "\u2581reach": 3247,
  "\u2581relationship": 3248,
  "\u2581Sous": 3249,
  "\u2581Spain": 3250,
  "\u2581Euro": 3251,
  "ix": 3252,
  "\u258144": 3253,
  "\u2581dossier": 3254,
  "\u2581add": 3255,
  "\u2581c\u0153ur": 3256,
  "\u2581proceedings": 3257,
  "\u2581establishing": 3258,
  "\u2581d\u00e9s": 3259,
  "\u2581semaines": 3260,
  "DE": 3261,
  "\u2581Guide": 3262,
  "\u2581sale": 3263,
  "\u2581militaires": 3264,
  "\u2581drug": 3265,
  "77": 3266,
  "histoire": 3267,
  "\u2581Lord": 3268,
  "\u2581vehicles": 3269,
  "\u2581d\u00e9mocratique": 3270,
  "\u2581Who": 3271,
  "\u2581fr": 3272,
  "ONU": 3273,
  "\u2581esp\u00e8ces": 3274,
  "ob": 3275,
  "\u2581commentaires": 3276,
  "\u2581enqu\u00eate": 3277,
  "\u2581specified": 3278,
  "\u2581Just": 3279,
  "\u2581entry": 3280,
  "\u2581functions": 3281,
  "59": 3282,
  "exp\u00e9rience": 3283,
  "mar": 3284,
  "\u2581principalement": 3285,
  "92": 3286,
  "\u2581devez": 3287,
  "2.": 3288,
  "\u2581\u00c3": 3289,
  "\u2581trait\u00e9s": 3290,
  "\u2581tests": 3291,
  "\u2581compared": 3292,
  "07": 3293,
  "\u2581extra": 3294,
  "\u2581vient": 3295,
  "ster": 3296,
  "gc": 3297,
  "\u2581Project": 3298,
  "46": 3299,
  "ide": 3300,
  "(2)": 3301,
  "\u2581CO": 3302,
  "\u2581music": 3303,
  "\u2581presence": 3304,
  "\u2581Journal": 3305,
  "\u2581destruction": 3306,
  "\u2581enter": 3307,
  "\u2581situ\u00e9": 3308,
  "\u2581resolutions": 3309,
  "ja": 3310,
  "informations": 3311,
  "\u2581eau": 3312,
  "\u2581bord": 3313,
  "\u2581People": 3314,
  "ens": 3315,
  "88": 3316,
  "ize": 3317,
  "\u2581function": 3318,
  "\u2581statements": 3319,
  "\u2581consommateurs": 3320,
  "\u2581Pre": 3321,
  "\u2581aimed": 3322,
  "\u2581Arab": 3323,
  "89": 3324,
  "ification": 3325,
  "\u2581try": 3326,
  "\u2581consensus": 3327,
  "\u2581contains": 3328,
  "\u2581visite": 3329,
  "38": 3330,
  "\u2581responsabilit\u00e9s": 3331,
  "\u2581D\u00e9": 3332,
  "\u2581assist": 3333,
  "\u2581si\u00e8cle": 3334,
  "\u2581Rome": 3335,
  "\u2581cons\u00e9quences": 3336,
  "\u2581concentration": 3337,
  "IP": 3338,
  "\u2581Transport": 3339,
  "\u258143": 3340,
  "\u2581fine": 3341,
  "\u2581scope": 3342,
  "po": 3343,
  "\u2581build": 3344,
  "gen": 3345,
  "\u2581priv\u00e9e": 3346,
  "ium": 3347,
  "yl": 3348,
  "\u2581lien": 3349,
  "\u2581voix": 3350,
  "\u2581sexual": 3351,
  "\u2581investigation": 3352,
  "iser": 3353,
  "\u2581serve": 3354,
  "\u2581class": 3355,
  "\u2581notice": 3356,
  "\u2581units": 3357,
  "\u2581blood": 3358,
  "\u2581hold": 3359,
  "\u2581Asia": 3360,
  "\u2581circulation": 3361,
  "\u2581granted": 3362,
  "\u2581alimentaire": 3363,
  "\u2581intervention": 3364,
  "\u2581Meeting": 3365,
  "\u2581pressure": 3366,
  "\u2581loin": 3367,
  "\u2581DU": 3368,
  "\u2581Haut": 3369,
  "\u2581vid\u00e9o": 3370,
  "\u2581organized": 3371,
  "\u2581Mac": 3372,
  "\u2581traite": 3373,
  "\u2581sanctions": 3374,
  "int": 3375,
  "\u2581scientific": 3376,
  "\u2581sol": 3377,
  "\u2581introduced": 3378,
  "\u25811992": 3379,
  "\u2581rooms": 3380,
  "\u2581bureaux": 3381,
  "\u2581tribunal": 3382,
  "\u2581Autres": 3383,
  "\u2581VIH": 3384,
  "\u2581shows": 3385,
  "ateur": 3386,
  "\u2581enhance": 3387,
  "\u2581\u00e9v\u00e9nements": 3388,
  "\u2581charges": 3389,
  "www": 3390,
  "\u2581restrictions": 3391,
  "\u2581montre": 3392,
  "En": 3393,
  "aires": 3394,
  "\u2581pied": 3395,
  "\u2581professionnels": 3396,
  "\u2581utilisateurs": 3397,
  "\u2581rest": 3398,
  "off": 3399,
  "\u2581beautiful": 3400,
  "\u2581compensation": 3401,
  "\u2581m\u00e9canisme": 3402,
  "\u2581terres": 3403,
  "\u2581mot": 3404,
  "\u2581news": 3405,
  "\u2581wanted": 3406,
  "\u2581although": 3407,
  "\u2581Elles": 3408,
  "\u2581heard": 3409,
  "\u2581promoting": 3410,
  "ber": 3411,
  "\u2581medium": 3412,
  "ET": 3413,
  "less": 3414,
  "\u2581generally": 3415,
  "\u2581trouv\u00e9": 3416,
  "ables": 3417,
  "\u2581obstacles": 3418,
  "78": 3419,
  "\u2581ability": 3420,
  "\u2581modern": 3421,
  "\u2581seraient": 3422,
  "\u2581Room": 3423,
  "67": 3424,
  "\u2581mentioned": 3425,
  "29": 3426,
  "\u2581Mont": 3427,
  "\u2581followed": 3428,
  "\u2581Port": 3429,
  "\u2581judiciaire": 3430,
  "\u2581Financial": 3431,
  "si": 3432,
  "\u2581humanitaire": 3433,
  "\u2581though": 3434,
  "\u2581appliquer": 3435,
  "\u2581partenariat": 3436,
  "\u2581strengthening": 3437,
  "rait": 3438,
  "ron": 3439,
  "all": 3440,
  "\u2581constituent": 3441,
  "serv": 3442,
  "\u2581partnership": 3443,
  "\u2581export": 3444,
  "\u2581priorit\u00e9": 3445,
  "\u2581cuisine": 3446,
  "\u2581became": 3447,
  "\u2581\u00e9quipe": 3448,
  "\u25811999,": 3449,
  "\u2581Vice": 3450,
  "\u2581pollution": 3451,
  "\u2581century": 3452,
  "\u2581Ex": 3453,
  "\u2581alternative": 3454,
  "dis": 3455,
  "ose": 3456,
  "\u2581signed": 3457,
  "\u2581adequate": 3458,
  "\u2581CE": 3459,
  "\u2581father": 3460,
  "ii": 3461,
  "can": 3462,
  "58": 3463,
  "\u2581applicables": 3464,
  "\u2581cons\u00e9quence": 3465,
  "\u2581maintain": 3466,
  "\u2581languages": 3467,
  "\u2581Business": 3468,
  "\u2581allowed": 3469,
  "ho": 3470,
  "\u2581recognized": 3471,
  "\u2581destination": 3472,
  "\u2581grave": 3473,
  "\u2581Enfin": 3474,
  "\u2581Come": 3475,
  "\u2581\u00e9tablissement": 3476,
  "\u2581examin\u00e9": 3477,
  "\u25816,": 3478,
  "\u2581provenant": 3479,
  "\u2581weeks": 3480,
  "\u2581dated": 3481,
  "\u2581word": 3482,
  "\u2581preparation": 3483,
  "63": 3484,
  "\u2581publi\u00e9": 3485,
  "76": 3486,
  "\u2581mother": 3487,
  "\u2581safe": 3488,
  "ver": 3489,
  "\u2581rendu": 3490,
  "ino": 3491,
  "\u2581Data": 3492,
  "\u2581Number": 3493,
  "\u2581armed": 3494,
  "EL": 3495,
  "\u2581Children": 3496,
  "\u2581imp": 3497,
  "tion": 3498,
  "93": 3499,
  "ATION": 3500,
  "\u258149": 3501,
  "\u2581rendement": 3502,
  "\u258141": 3503,
  "\u2581cat\u00e9gories": 3504,
  "\u2581Congo": 3505,
  "\u2581soulign\u00e9": 3506,
  "\u2581annex": 3507,
  "ung": 3508,
  "\u2581cancer": 3509,
  "\u2581respecter": 3510,
  "ger": 3511,
  "Agence": 3512,
  "\u2581fort": 3513,
  "\u2581goals": 3514,
  "\u2581reduced": 3515,
  "\u2581board": 3516,
  "\u2581gros": 3517,
  "\u2581volont\u00e9": 3518,
  "9": 3519,
  "\u2581pr\u00e9paration": 3520,
  "\u2581mises": 3521,
  "\u2581lit": 3522,
  "\u2581built": 3523,
  "\u25812005.": 3524,
  "old": 3525,
  "85": 3526,
  "\u2581diffusion": 3527,
  "\u2581(3)": 3528,
  "\u2581started": 3529,
  "\u2581lives": 3530,
  "\u2581gave": 3531,
  "\u2581VI": 3532,
  "\u2581aim": 3533,
  "chi": 3534,
  "\u2581juge": 3535,
  "\u2581critical": 3536,
  "\u2581maladies": 3537,
  "\u2581category": 3538,
  "\u2581insurance": 3539,
  "\u2581\u00e9tudiants": 3540,
  "3,": 3541,
  "\u2581Na": 3542,
  "\u2581actually": 3543,
  "\u2581relativement": 3544,
  "\u2581commenc\u00e9": 3545,
  "\u2581autour": 3546,
  "va": 3547,
  "\u2581disponibilit\u00e9": 3548,
  "\u2581longue": 3549,
  "\u00e9galit\u00e9": 3550,
  "\u2581g\u00e9n\u00e9rales": 3551,
  "\u2581r\u00e9cemment": 3552,
  "68": 3553,
  "\u2581r\u00e9gionale": 3554,
  "\u2581d\u00e9chets": 3555,
  "\u2581Chaque": 3556,
  "\u2581choice": 3557,
  "\u2581physique": 3558,
  "ham": 3559,
  "\u2581devait": 3560,
  "\u25819.": 3561,
  "\u2581recevoir": 3562,
  "her": 3563,
  "\u2581essentiel": 3564,
  "\u2581faite": 3565,
  "\u2581leading": 3566,
  "\u2581girls": 3567,
  "AR": 3568,
  "\u2581milliards": 3569,
  "\u2581innovation": 3570,
  "\u2581CD": 3571,
  "\u2581origin": 3572,
  "ns": 3573,
  "\u25812009,": 3574,
  "ial": 3575,
  "\u2581pr\u00e9vue": 3576,
  "\u2581learn": 3577,
  "\u2581animaux": 3578,
  "\u2581quelqu": 3579,
  "\u2581claim": 3580,
  "\u2581limit": 3581,
  "ient": 3582,
  "\u2581send": 3583,
  "\u2581compter": 3584,
  "tes": 3585,
  "\u2581voulez": 3586,
  "\u2581classification": 3587,
  "\u2581waste": 3588,
  "\u2581patient": 3589,
  "\u2581forte": 3590,
  "69": 3591,
  "\u2581Dis": 3592,
  "64": 3593,
  "\u2581method": 3594,
  "ip": 3595,
  "\u2581Articles": 3596,
  "\u2581revenus": 3597,
  "\u2581candidats": 3598,
  "\u2581favoriser": 3599,
  "\u2581Com": 3600,
  "adoption": 3601,
  "\u2581permettent": 3602,
  "\u2581campagne": 3603,
  "\u2581eaux": 3604,
  "56": 3605,
  "\u2581undertaken": 3606,
  "\u2581successful": 3607,
  "\u2581Google": 3608,
  "\u2581dimension": 3609,
  "\u2581saw": 3610,
  "\u2581recently": 3611,
  "\u2581modalit\u00e9s": 3612,
  "\u2581registered": 3613,
  "investissement": 3614,
  "\u2581Mi": 3615,
  "\u2581estimated": 3616,
  "\u2581offered": 3617,
  "\u2581risks": 3618,
  "\u2581reached": 3619,
  "n\u00e9": 3620,
  "ible": 3621,
  "pt": 3622,
  "\u2581approximately": 3623,
  "\u2581soutenir": 3624,
  "\u2581Quoi": 3625,
  "\u2581dois": 3626,
  "\u2581Food": 3627,
  "avenir": 3628,
  "\u2581doute": 3629,
  "51": 3630,
  "\u2581agricoles": 3631,
  "\u2581d\u00e9clarations": 3632,
  "\u2581hors": 3633,
  "\u25812006.": 3634,
  "\u2581fille": 3635,
  "\u2581musique": 3636,
  "\u2581expression": 3637,
  "ments": 3638,
  "\u2581advice": 3639,
  "\u2581assets": 3640,
  "\u2581white": 3641,
  "\u2581sexes": 3642,
  "04": 3643,
  "AT": 3644,
  "\u2581passage": 3645,
  "\u2581feu": 3646,
  "\u2581check": 3647,
  "\u2581scientifiques": 3648,
  "\u2581leadership": 3649,
  "\u2581statistics": 3650,
  "\u2581War": 3651,
  "\u2581officials": 3652,
  "\u2581accessible": 3653,
  "\u2581improving": 3654,
  "\u2581learning": 3655,
  "ities": 3656,
  "\u2581profit": 3657,
  "\u2581sense": 3658,
  "\u25817,": 3659,
  "\u2581fight": 3660,
  "\u2581Chapter": 3661,
  "tel": 3662,
  "\u2581town": 3663,
  "\u2581governments": 3664,
  "\u2581simplement": 3665,
  "02": 3666,
  "03": 3667,
  "\u2581woman": 3668,
  "\u2581p\u00e9nale": 3669,
  "\u2581recherches": 3670,
  "\u2581\u00e9trang\u00e8res": 3671,
  "\u2581m\u00e9dicaments": 3672,
  "\u2581consistent": 3673,
  "\u2581complex": 3674,
  "\u2581quantit\u00e9": 3675,
  "\u2581\u00e9trangers": 3676,
  "\u2581Am\u00e9rique": 3677,
  "\u2581friend": 3678,
  "\u2581complet": 3679,
  "\u2581Day": 3680,
  "ze": 3681,
  "\u2581servir": 3682,
  "\u2581longtemps": 3683,
  "\u2581presque": 3684,
  "\u2581Ben": 3685,
  "\u2581ready": 3686,
  "\u2581entire": 3687,
  "\u2581Check": 3688,
  "\u2581View": 3689,
  "\u2581premiers": 3690,
  "\u2581agriculture": 3691,
  "57": 3692,
  "\u2581mod\u00e8les": 3693,
  "\u2581\u00e9lections": 3694,
  "\u2581attend": 3695,
  "\u2581fiscal": 3696,
  "\u2581signifie": 3697,
  "\u2581friends": 3698,
  "\u2581Directeur": 3699,
  "\u2581peoples": 3700,
  "espace": 3701,
  "\u2581plant": 3702,
  "\u2581Good": 3703,
  "\u2581Read": 3704,
  "\u2581regulatory": 3705,
  "\u258185": 3706,
  "\u2581allows": 3707,
  "\u00e2ge": 3708,
  "\u2581agent": 3709,
  "\u2581avoid": 3710,
  "iques": 3711,
  "\u2581efficiency": 3712,
  "\u2581claims": 3713,
  "\u2581immediately": 3714,
  "\u2581trafic": 3715,
  "\u2581O\u00f9": 3716,
  "\u2581definition": 3717,
  "\u2581sport": 3718,
  "\u2581Aboriginal": 3719,
  "\u2581danger": 3720,
  "\u2581migrants": 3721,
  "\u2581Recherche": 3722,
  "\u2581porter": 3723,
  "\u2581tandis": 3724,
  "\u2581sections": 3725,
  "\u2581daily": 3726,
  "\u2581whom": 3727,
  "\u2581limite": 3728,
  "\u2581coup": 3729,
  "\u2581Su": 3730,
  "\u2581Product": 3731,
  "\u2581Ca": 3732,
  "related": 3733,
  "\u2581press": 3734,
  "\u2581Advisory": 3735,
  "\u00e1": 3736,
  "\u2581competent": 3737,
  "\u2581\u00e9galit\u00e9": 3738,
  "\u2581notification": 3739,
  "\u2581release": 3740,
  "\u2581humaine": 3741,
  "\u2581traiter": 3742,
  "\u2581Toutes": 3743,
  "\u2581instructions": 3744,
  "\u2581commande": 3745,
  "\u2581transactions": 3746,
  "\u2581utile": 3747,
  "OS": 3748,
  "\u2581uses": 3749,
  "\u2581stakeholders": 3750,
  "\u2581setting": 3751,
  "\u2581d\u00e9l\u00e9gations": 3752,
  "\u2581features": 3753,
  "\u258146": 3754,
  "tique": 3755,
  "\u2581disease": 3756,
  "\u2581calls": 3757,
  "bar": 3758,
  "\u2581duty": 3759,
  "\u2581livre": 3760,
  "86": 3761,
  "bi": 3762,
  "ID": 3763,
  "\u2581equality": 3764,
  "\u2581listed": 3765,
  "ps": 3766,
  "Afrique": 3767,
  "\u2581ten": 3768,
  "\u2581t\u00e9l\u00e9phone": 3769,
  "\u2581Bible": 3770,
  "\u2581sufficient": 3771,
  "\u2581paragraphes": 3772,
  "ue": 3773,
  "\u2581d\u00e9sarmement": 3774,
  "\u2581regulation": 3775,
  "42": 3776,
  "\u2581limites": 3777,
  "\u2581placed": 3778,
  "\u2581invited": 3779,
  "responsibilities": 3780,
  "\u2581interested": 3781,
  "\u2581150": 3782,
  "\u2581existence": 3783,
  "AP": 3784,
  "\u2581beyond": 3785,
  "\u2581Direction": 3786,
  "\u2581restaurant": 3787,
  "\u2581separate": 3788,
  "\u2581trust": 3789,
  "sol": 3790,
  "lic": 3791,
  "ning": 3792,
  "\u2581port\u00e9e": 3793,
  "\u2581computer": 3794,
  "\u2581resource": 3795,
  "\u2581Such": 3796,
  "\u2581recommandation": 3797,
  "\u2581vis": 3798,
  "\u2581poor": 3799,
  "\u2581impossible": 3800,
  "urgence": 3801,
  "\u2581corruption": 3802,
  "ienne": 3803,
  "\u2581\u00e9viter": 3804,
  "form": 3805,
  "\u2581obtained": 3806,
  "\u2581hear": 3807,
  "\u00e9tais": 3808,
  "\u25812007.": 3809,
  "\u2581Gu": 3810,
  "\u2581nation": 3811,
  "istes": 3812,
  "\u2581www": 3813,
  "dy": 3814,
  "\u2581fish": 3815,
  "heure": 3816,
  "\u2581improved": 3817,
  "\u2581Open": 3818,
  "\u2581selected": 3819,
  "\u2581parfois": 3820,
  "int\u00e9gration": 3821,
  "\u2581scientifique": 3822,
  "\u2581excellent": 3823,
  "avais": 3824,
  "\u2581indique": 3825,
  "\u2581choose": 3826,
  "\u2581Chambre": 3827,
  "\u2581late": 3828,
  "\u2581comp\u00e9tence": 3829,
  "\u2581Charter": 3830,
  "avait": 3831,
  "\u2581Japan": 3832,
  "\u2581r\u00e9solutions": 3833,
  "\u2581utilis\u00e9es": 3834,
  "-5": 3835,
  "\u2581Sub": 3836,
  "\u2581\u00e9valuer": 3837,
  "\u2581conventions": 3838,
  "\u258147": 3839,
  "\u2581interventions": 3840,
  "\u25812010,": 3841,
  "\u2581fil": 3842,
  "\u2581sept": 3843,
  "over": 3844,
  "\u2581alone": 3845,
  "level": 3846,
  "ator": 3847,
  "\u2581Red": 3848,
  "\u2581europ\u00e9ens": 3849,
  "\u2581outils": 3850,
  "\u2581journ\u00e9e": 3851,
  "\u2581expertise": 3852,
  "\u2581Ver": 3853,
  "\u2581imm\u00e9diatement": 3854,
  "\u2581Afghanistan": 3855,
  "\u2581black": 3856,
  "54": 3857,
  "\u2581Foreign": 3858,
  "\u2581Palestinian": 3859,
  "\u2581facile": 3860,
  "\u2581Park": 3861,
  "\u2581particuli\u00e8re": 3862,
  "\u2581survey": 3863,
  "EM": 3864,
  "\u2581rend": 3865,
  "\u2581transformation": 3866,
  "\u2581goal": 3867,
  "fa": 3868,
  "rd": 3869,
  "72": 3870,
  "\u258110.": 3871,
  "\u2581villes": 3872,
  "\u2581registration": 3873,
  "\u2581department": 3874,
  "\u2581fall": 3875,
  "\u2581answer": 3876,
  "\u2581maintenir": 3877,
  "%": 3878,
  "enqu\u00eate": 3879,
  "\u2581principale": 3880,
  "\u2581apporter": 3881,
  "dire": 3882,
  "\u2581Permanent": 3883,
  "\u2581d\u00e9tails": 3884,
  "\u2581doesn": 3885,
  "\u2581devenir": 3886,
  "UN": 3887,
  "ke": 3888,
  "\u2581Ko": 3889,
  "tre": 3890,
  "\u2581pression": 3891,
  "\u2581indigenous": 3892,
  "\u2581pouvons": 3893,
  "mes": 3894,
  "\u2581commerciales": 3895,
  "way": 3896,
  "ign": 3897,
  "\u2581r\u00e8glements": 3898,
  "\u25812004.": 3899,
  "\u2581percent": 3900,
  "\u2581efficaces": 3901,
  "\u2581practical": 3902,
  "\u2581r\u00e9ponses": 3903,
  "\u2581pourra": 3904,
  "l\u00e9": 3905,
  "am\u00e9lioration": 3906,
  "\u2581components": 3907,
  "\u2581naturelles": 3908,
  "\u2581pr\u00eat": 3909,
  "\u2581variety": 3910,
  "\u2581Administration": 3911,
  "\u2581ouvert": 3912,
  "\u258177": 3913,
  "\u2581Because": 3914,
  "\u2581extension": 3915,
  "\u2581prestations": 3916,
  "\u2581Representative": 3917,
  "\u2581invite": 3918,
  ".8": 3919,
  "\u2581figurant": 3920,
  "\u2581fair": 3921,
  "\u2581Ministre": 3922,
  "\u2581industries": 3923,
  "\u2581\u00e9coles": 3924,
  "\u2581useful": 3925,
  "\u2581Also": 3926,
  "\u2581race": 3927,
  "our": 3928,
  "\u2581panier": 3929,
  "\u2581usage": 3930,
  "\u2581raised": 3931,
  "Ontario": 3932,
  "\u2581rue": 3933,
  "\u2581religious": 3934,
  "\u2581conclu": 3935,
  "53": 3936,
  "\u2581Each": 3937,
  "\u2581enjoy": 3938,
  "\u2581soir": 3939,
  "\u2581reviews": 3940,
  "\u2581tool": 3941,
  "\u2581leaders": 3942,
  "61": 3943,
  "\u2581agricole": 3944,
  "\u2581fire": 3945,
  "\u2581mechanism": 3946,
  "\u2581capable": 3947,
  "\u2581perte": 3948,
  "\u2581urban": 3949,
  "pos": 3950,
  "\u25811991": 3951,
  "\u2581canadiennes": 3952,
  "\u2581Members": 3953,
  "ten": 3954,
  "\u2581territoires": 3955,
  "\u2581fabrication": 3956,
  "\u2581totale": 3957,
  "\u2581Gen\u00e8ve": 3958,
  "\u2581seems": 3959,
  "\u2581officers": 3960,
  "\u2581importe": 3961,
  "\u2581lieux": 3962,
  "\u2581seven": 3963,
  "\u2581lost": 3964,
  "onform\u00e9ment": 3965,
  "intention": 3966,
  "\u2581ongoing": 3967,
  "UR": 3968,
  "\u2581administratives": 3969,
  "IM": 3970,
  "governmental": 3971,
  "\u2581Official": 3972,
  "\u2581signature": 3973,
  "mon": 3974,
  "\u2581stations": 3975,
  "\u2581consumption": 3976,
  "\u2581atteint": 3977,
  "\u2581si\u00e8ge": 3978,
  "\u2581Cuba": 3979,
  "\u2581quite": 3980,
  "\u2581Geneva": 3981,
  "\u2581Bon": 3982,
  "\u2581offrir": 3983,
  "\u2581visits": 3984,
  "\u2581legislative": 3985,
  "ST": 3986,
  "\u2581garde": 3987,
  "\u2581target": 3988,
  "\u258164": 3989,
  "ari": 3990,
  "\u2581conformit\u00e9": 3991,
  "\u2581obtain": 3992,
  "\u258152": 3993,
  "CI": 3994,
  "\u2581aircraft": 3995,
  "auteur": 3996,
  "CH": 3997,
  "\u2581rester": 3998,
  "\u2581400": 3999,
  "\u00e9volution": 4000,
  "\u25811998,": 4001,
  "\u2581bi": 4002,
  "ani": 4003,
  "\u2581files": 4004,
  "\u2581\u00e9l\u00e9ment": 4005,
  "\u2581actuel": 4006,
  "\u2581effectively": 4007,
  "\u2581floor": 4008,
  "\u2581adopt": 4009,
  "\u2581taxes": 4010,
  "1,": 4011,
  "\u2581http": 4012,
  "\u2581animal": 4013,
  "\u2581contenant": 4014,
  "\u2581sign": 4015,
  "\u2581sciences": 4016,
  "\u2581worked": 4017,
  "\u2581laid": 4018,
  "am\u00e9liorer": 4019,
  "\u2581developments": 4020,
  "\u258151": 4021,
  "\u2581recommendation": 4022,
  "\u2581tri": 4023,
  "\u2581conduite": 4024,
  "\u2581d\u00e9tention": 4025,
  "\u2581enforcement": 4026,
  "\u2581fichiers": 4027,
  "\u2581gratuit": 4028,
  "\u2581processing": 4029,
  "\u2581examine": 4030,
  "\u2581accept": 4031,
  "\u2581emergency": 4032,
  "\u2581correct": 4033,
  "\u2581prochaine": 4034,
  "euse": 4035,
  "\u2581messages": 4036,
  "\u2581supporting": 4037,
  "\u2581emissions": 4038,
  "ach": 4039,
  "\u2581growing": 4040,
  "\u2581particuliers": 4041,
  "\u2581map": 4042,
  "\u2581Allemagne": 4043,
  "\u2581stand": 4044,
  "\u2581pr\u00e9sent\u00e9s": 4045,
  "\u2581visiteurs": 4046,
  "-10": 4047,
  "\u2581highly": 4048,
  "\u2581f\u00e9d\u00e9rale": 4049,
  "\u2581debt": 4050,
  "\u2581nor": 4051,
  "\u2581behind": 4052,
  "\u2581laisser": 4053,
  "\u2581cart": 4054,
  "\u2581adopt\u00e9e": 4055,
  "\u258154": 4056,
  "\u2581Avis": 4057,
  "06": 4058,
  "\u2581amis": 4059,
  "\u2581globale": 4060,
  "\u2581r\u00e8gle": 4061,
  "\u2581steel": 4062,
  "\u2581produce": 4063,
  "\u2581machines": 4064,
  "\u2581concluded": 4065,
  "\u2581possibility": 4066,
  "\u2581pouvait": 4067,
  "\u2581utilisant": 4068,
  "\u2581circonstances": 4069,
  "CP": 4070,
  "tri": 4071,
  "\u2581pr\u00e9venir": 4072,
  "\u2581accepted": 4073,
  "\u2581champ": 4074,
  "\u2581super": 4075,
  "\u2581Sch": 4076,
  "sion": 4077,
  "\u2581commitments": 4078,
  "\u2581Italie": 4079,
  "\u2581premi\u00e8res": 4080,
  "so": 4081,
  "\u2581appeal": 4082,
  "appel": 4083,
  "\u2581suppl\u00e9mentaire": 4084,
  "\u2581vont": 4085,
  "\u2581challenge": 4086,
  "\u2581employee": 4087,
  "\u2581efficient": 4088,
  "\u2581entier": 4089,
  "\u2581agree": 4090,
  "\u2581reconnaissance": 4091,
  "\u2581d\u00e9finir": 4092,
  "\u2581diversit\u00e9": 4093,
  "\u2581choisir": 4094,
  "\u2581Chairman": 4095,
  "uk": 4096,
  "\u2581Resources": 4097,
  "\u2581partner": 4098,
  "q": 4099,
  "\u2581educational": 4100,
  "\u2581th\u00e8me": 4101,
  "\u2581gamme": 4102,
  "\u00e9chelle": 4103,
  "\u2581morning": 4104,
  "\u258101": 4105,
  "\u2581expenditure": 4106,
  "\u2581auto": 4107,
  "\u2581discussed": 4108,
  "\u2581tonnes": 4109,
  "avez": 4110,
  "\u2581Voici": 4111,
  "\u2581departments": 4112,
  "\u258156": 4113,
  "\u2581chemin": 4114,
  "\u2581d\u00e9fis": 4115,
  "TA": 4116,
  "\u2581Forces": 4117,
  "\u2581user": 4118,
  "\u2581stabilit\u00e9": 4119,
  "\u2581Work": 4120,
  "\u2581Water": 4121,
  "\u2581Hey": 4122,
  "\u25812003.": 4123,
  "\u2581author": 4124,
  "\u2581nucl\u00e9aire": 4125,
  "\u2581fond\u00e9e": 4126,
  "87": 4127,
  "\u2581wrong": 4128,
  "ette": 4129,
  "\u2581donn\u00e9e": 4130,
  "94": 4131,
  "\u2581M\u00eame": 4132,
  "\u2581Federation": 4133,
  "\u2581approuv\u00e9": 4134,
  "\u2581continues": 4135,
  "\u2581communiquer": 4136,
  "\u2581particip\u00e9": 4137,
  "\u2581jeune": 4138,
  "\u2581pr\u00eats": 4139,
  "\u2581marketing": 4140,
  "iens": 4141,
  "\u2581vivre": 4142,
  "\u2581permettra": 4143,
  "\u2581Certains": 4144,
  "\u2581Joint": 4145,
  "\u2581recommande": 4146,
  "\u2581connu": 4147,
  "\u2581organis\u00e9": 4148,
  "\u2581officielles": 4149,
  "\u2581Furthermore": 4150,
  "\u2581minist\u00e8res": 4151,
  "ven": 4152,
  "\u2581indicators": 4153,
  "\u2581bed": 4154,
  "vin": 4155,
  "\u2581chefs": 4156,
  "\u2581Charte": 4157,
  "\u2581destin\u00e9s": 4158,
  "enfant": 4159,
  "\u2581pertinentes": 4160,
  "\u2581courts": 4161,
  "\u2581sp\u00e9ciales": 4162,
  "\u2581$1": 4163,
  "73": 4164,
  "\u2581institutional": 4165,
  "\u2581fourni": 4166,
  "\u2581sang": 4167,
  "\u2581trying": 4168,
  "vent": 4169,
  "ud": 4170,
  "\u2581introduction": 4171,
  "\u2581meilleurs": 4172,
  "\u258195": 4173,
  "\u2581ministres": 4174,
  "\u2581Most": 4175,
  "\u2581tient": 4176,
  "\u2581gives": 4177,
  "dll": 4178,
  "\u2581moteur": 4179,
  "\u2581\u00e9changes": 4180,
  "\u2581Safety": 4181,
  "\u2581guarantee": 4182,
  "\u2581Second": 4183,
  "\u2581Sea": 4184,
  "\u2581Ireland": 4185,
  "AD": 4186,
  "\u2581collectivit\u00e9s": 4187,
  "\u2581Many": 4188,
  "tor": 4189,
  "\u2581inform": 4190,
  "Km": 4191,
  "\u2581Tri": 4192,
  "\u2581Type": 4193,
  "\u2581Nouvelle": 4194,
  "\u2581gr": 4195,
  "ano": 4196,
  "\u2581began": 4197,
  "\u2581sales": 4198,
  "\u2581links": 4199,
  "\u2581vacances": 4200,
  "making": 4201,
  "\u2581Twitter": 4202,
  "\u2581Get": 4203,
  "PC": 4204,
  "\u2581Two": 4205,
  "\u2581(2": 4206,
  "\u2581recommand\u00e9": 4207,
  "\u2581R\u00e9union": 4208,
  "\u2581requirement": 4209,
  "\u2581pourcentage": 4210,
  "\u2581adopter": 4211,
  "\u2581numbers": 4212,
  "\u2581link": 4213,
  "\u2581effectiveness": 4214,
  "\u2581r\u00e9alit\u00e9": 4215,
  "innovation": 4216,
  "\u2581g\u00e9n\u00e9raux": 4217,
  "\u2581certification": 4218,
  "\u2581yeux": 4219,
  "\u2581courses": 4220,
  "\u2581bank": 4221,
  "\u2581aware": 4222,
  "\u2581guidance": 4223,
  "\u2581Main": 4224,
  "\u2581Pacte": 4225,
  "\u2581welcome": 4226,
  "\u2581garantie": 4227,
  "\u2581Po": 4228,
  "\u2581River": 4229,
  "\u2581Afin": 4230,
  "\u2581task": 4231,
  "lon": 4232,
  "\u00e8rent": 4233,
  "\u2581mener": 4234,
  "\u2581mouvement": 4235,
  "\u2581aliments": 4236,
  "\u2581installation": 4237,
  "100": 4238,
  "\u2581giving": 4239,
  "\u2581puissent": 4240,
  "We": 4241,
  "\u2581ami": 4242,
  "\u25811)": 4243,
  "\u2581Trait\u00e9": 4244,
  "\u2581chimiques": 4245,
  "ON": 4246,
  "aime": 4247,
  "\u2581auteurs": 4248,
  "\u258153": 4249,
  "\u2581degree": 4250,
  "\u2581Energy": 4251,
  "\u2581Ha": 4252,
  "\u00e9r": 4253,
  "\u25812011,": 4254,
  "\u2581logement": 4255,
  "\u2581cr\u00e9dits": 4256,
  "\u2581Val": 4257,
  "\u2581graves": 4258,
  "\u2581d\u00e9tail": 4259,
  "\u2581Tour": 4260,
  "ouverture": 4261,
  "\u2581consid\u00e9r\u00e9": 4262,
  "\u2581utilis\u00e9e": 4263,
  "\u2581caused": 4264,
  "esprit": 4265,
  "\u2581Therefore": 4266,
  "\u2581dates": 4267,
  "\u2581poly": 4268,
  "\u2581payments": 4269,
  "\u2581consiste": 4270,
  "\u2581sauf": 4271,
  "\u2581fields": 4272,
  "\u2581Netherlands": 4273,
  "Fi": 4274,
  "\u2581resulting": 4275,
  "\u2581judicial": 4276,
  "a\u00ef": 4277,
  "\u2581subsection": 4278,
  "\u2581acteurs": 4279,
  "\u2581parole": 4280,
  "\u2581TO": 4281,
  "\u2581proc\u00e9der": 4282,
  "cher": 4283,
  "Est": 4284,
  "\u2581prepare": 4285,
  "\u2581sort": 4286,
  "71": 4287,
  "\u2581t\u00e2ches": 4288,
  "\u2581r\u00e9alis\u00e9s": 4289,
  "\u2581Quel": 4290,
  "\u2581infrastructures": 4291,
  "\u2581trait": 4292,
  "\u2581border": 4293,
  "\u25812012,": 4294,
  "\u2581opening": 4295,
  "\u2581arrive": 4296,
  "\u2581actual": 4297,
  "\u2581communes": 4298,
  "\u2581Kosovo": 4299,
  "\u2581cultures": 4300,
  "79": 4301,
  "\u2581Criminal": 4302,
  "\u2581exception": 4303,
  "84": 4304,
  "\u2581enti\u00e8rement": 4305,
  "\u2581fondamentaux": 4306,
  "\u2581Premier": 4307,
  "\u00e9cole": 4308,
  "\u2581arms": 4309,
  "\u2581ex\u00e9cution": 4310,
  "\u2581F\u00e9d\u00e9ration": 4311,
  "\u2581Point": 4312,
  "\u2581Suisse": 4313,
  "\u2581governance": 4314,
  "0,000": 4315,
  "\u2581pouvant": 4316,
  "\u2581someone": 4317,
  "\u2581informal": 4318,
  "\u2581civils": 4319,
  "\u2581stable": 4320,
  "\u25811997,": 4321,
  "\u2581Nombre": 4322,
  "SP": 4323,
  "IE": 4324,
  "\u2581Look": 4325,
  "\u2581outcome": 4326,
  "\u2581Authority": 4327,
  "\u2581men\u00e9es": 4328,
  "\u2581voudrais": 4329,
  "\u2581couleur": 4330,
  "\u2581mass": 4331,
  "\u2581saying": 4332,
  "\u2581Cap": 4333,
  "berg": 4334,
  "\u2581Land": 4335,
  "\u2581supports": 4336,
  "assistance": 4337,
  "\u2581Cooperation": 4338,
  "\u2581bad": 4339,
  "\u25812008.": 4340,
  "\u2581himself": 4341,
  "van": 4342,
  "\u2581Isra\u00ebl": 4343,
  "\u2581indicateurs": 4344,
  "\u2581Western": 4345,
  "\u2581Price": 4346,
  "autorit\u00e9": 4347,
  "\u2581fuel": 4348,
  "\u2581lines": 4349,
  "l\u00e0": 4350,
  "\u2581except": 4351,
  "\u2581heure": 4352,
  "\u2581Panel": 4353,
  "IF": 4354,
  "\u2581reflect": 4355,
  "\u2581concern\u00e9s": 4356,
  "\u2581fournit": 4357,
  "\u2581Environmental": 4358,
  "\u2581appel\u00e9": 4359,
  "\u2581treaty": 4360,
  "\u2581duties": 4361,
  "\u2581\u00b0": 4362,
  "\u2581proc\u00e8s": 4363,
  "\u2581stocks": 4364,
  "\u2581ex\u00e9cutif": 4365,
  "\u2581Veuillez": 4366,
  "Am\u00e9rique": 4367,
  "\u2581FR": 4368,
  "\u2581\u00e9laborer": 4369,
  "\u2581identification": 4370,
  "\u2581\u00e9conomie": 4371,
  "applique": 4372,
  "\u2581speed": 4373,
  "\u2581networks": 4374,
  "ep": 4375,
  "\u2581terrorism": 4376,
  "\u2581trafficking": 4377,
  "ets": 4378,
  "\u2581couple": 4379,
  "\u2581records": 4380,
  "\u2581sexe": 4381,
  "RE": 4382,
  "\u2581getting": 4383,
  "91": 4384,
  "FR": 4385,
  "ien": 4386,
  "ft": 4387,
  "\u2581speak": 4388,
  "\u2581housing": 4389,
  "LE": 4390,
  "\u2581conf\u00e9rences": 4391,
  "[": 4392,
  "\u2581Prime": 4393,
  "\u2581marine": 4394,
  "\u2581Hu": 4395,
  "\u2581associ\u00e9s": 4396,
  "\u2581damage": 4397,
  "gi": 4398,
  "IL": 4399,
  "\u2581mainly": 4400,
  "\u2581Legal": 4401,
  "\u2581producteurs": 4402,
  "\u2581mots": 4403,
  "\u2581Am": 4404,
  "\u2581simply": 4405,
  "\u2581India": 4406,
  "CC": 4407,
  "\u2581everyone": 4408,
  "\u2581indicate": 4409,
  "cal": 4410,
  "\u2581planned": 4411,
  "\u2581Ni": 4412,
  "\u2581intitul\u00e9": 4413,
  "74": 4414,
  "han": 4415,
  "\u2581officiel": 4416,
  "\u2581demeure": 4417,
  "\u2581consid\u00e9r\u00e9e": 4418,
  "\u2581continuing": 4419,
  "\u2581district": 4420,
  "\u2581paragraphs": 4421,
  "\u2581applicant": 4422,
  "h\u00f4tel": 4423,
  "ries": 4424,
  "\u2581Senator": 4425,
  "\u2581mention": 4426,
  "\u2581fruit": 4427,
  "\u2581Cor": 4428,
  "\u2581mine": 4429,
  "\u2581round": 4430,
  "\u2581transit": 4431,
  "\u2581maritime": 4432,
  "absence": 4433,
  "izing": 4434,
  "\u2581perfect": 4435,
  "\u2581traitements": 4436,
  "\u2581souhaite": 4437,
  "\u2581writing": 4438,
  "\u2581conscience": 4439,
  "\u258192": 4440,
  "\u2581canadiens": 4441,
  "\u2581camp": 4442,
  "\u2581cut": 4443,
  "ice": 4444,
  "\u2581regards": 4445,
  "\u2581(19": 4446,
  "ales": 4447,
  "\u258111.": 4448,
  "\u2581latest": 4449,
  "\u2581inside": 4450,
  "\u2581visited": 4451,
  "\u2581Jo": 4452,
  "\u2581Brussels": 4453,
  "\u2581UNICEF": 4454,
  "\u2581moiti\u00e9": 4455,
  "jo": 4456,
  "\u2581Merci": 4457,
  "\u2581highest": 4458,
  "\u2581App": 4459,
  "\u2581customers": 4460,
  "\u2581revised": 4461,
  "\u2581forum": 4462,
  "ical": 4463,
  "\u2581textes": 4464,
  "\u2581usually": 4465,
  "\u2581shared": 4466,
  "\u2581foi": 4467,
  "\u2581Japon": 4468,
  "\u2581red": 4469,
  "\u25812002.": 4470,
  "\u2581Great": 4471,
  "\u2581RE": 4472,
  "\u2581recovery": 4473,
  "\u25819,": 4474,
  "\u2581migration": 4475,
  "\u2581consulter": 4476,
  "ct": 4477,
  "\u258157": 4478,
  "\u2581efficacit\u00e9": 4479,
  "\u2581Spanish": 4480,
  "\u2581CN": 4481,
  "utiliser": 4482,
  "\u2581puissance": 4483,
  "\u2581Use": 4484,
  "62": 4485,
  "\u2581kg": 4486,
  "ful": 4487,
  "\u2581sait": 4488,
  "\u2581contraire": 4489,
  "AM": 4490,
  "\u2581produire": 4491,
  "ted": 4492,
  "\u2581Download": 4493,
  "1.": 4494,
  "\u2581partage": 4495,
  "\u2581d\u00e9sormais": 4496,
  "\u2581Any": 4497,
  "\u2581advance": 4498,
  "Con": 4499,
  "\u2581accounts": 4500,
  "\u2581containing": 4501,
  "\u2581enqu\u00eates": 4502,
  "\u2581elections": 4503,
  "\u25812000.": 4504,
  "gar": 4505,
  "WP": 4506,
  "\u2581remember": 4507,
  "\u2581seek": 4508,
  "Bas": 4509,
  "\u2581Iran": 4510,
  "affaires": 4511,
  "\u2581quickly": 4512,
  "\u2581yourself": 4513,
  "\u2581Asie": 4514,
  "\u2581provisional": 4515,
  "ec": 4516,
  "\u2581sup\u00e9rieure": 4517,
  "non": 4518,
  "\u25811996,": 4519,
  "\u2581enseignement": 4520,
  "\u2581Moreover": 4521,
  "\u2581miles": 4522,
  "Il": 4523,
  "point": 4524,
  "\u2581fixed": 4525,
  "\u2581personnels": 4526,
  "\u2581w": 4527,
  "\u2581else": 4528,
  "\u00e8": 4529,
  "\u2581ment": 4530,
  "\u2581fruits": 4531,
  "\u2581parle": 4532,
  "\u2581ratification": 4533,
  "\u2581Black": 4534,
  "\u2581finance": 4535,
  "\u2581formal": 4536,
  "\u2581tenant": 4537,
  "pi": 4538,
  "\u2581Bruxelles": 4539,
  "\u2581obtenu": 4540,
  "\u2581length": 4541,
  "/5": 4542,
  "\u2581Strategy": 4543,
  "\u2581concours": 4544,
  "\u2581happened": 4545,
  "res": 4546,
  "\u2581locale": 4547,
  "\u20ac": 4548,
  "\u2581PDF": 4549,
  "ny": 4550,
  ".10": 4551,
  "\u2581Site": 4552,
  "\u2581cl\u00e9s": 4553,
  "-01": 4554,
  "\u2581categories": 4555,
  "\u2581CEE": 4556,
  "\u2581negative": 4557,
  "building": 4558,
  "\u2581modifi\u00e9": 4559,
  "\u2581gouvernance": 4560,
  "\u2581contacts": 4561,
  "\u2581amounts": 4562,
  "\u2581Switzerland": 4563,
  "\u2581abuse": 4564,
  "\u2581bonnes": 4565,
  "\u2581essais": 4566,
  "\u2581\u00e9ch\u00e9ant": 4567,
  "\u2581Company": 4568,
  "\u2581changer": 4569,
  "led": 4570,
  "\u2581tendance": 4571,
  "\u00e2": 4572,
  "\u2581Ministers": 4573,
  "\u2581fran\u00e7aise": 4574,
  "\u2581logiciel": 4575,
  "\u2581Tableau": 4576,
  "\u2581Location": 4577,
  "\u2581Child": 4578,
  "\u2581improvement": 4579,
  "\u2581appear": 4580,
  "\u2581sp\u00e9cifique": 4581,
  "don": 4582,
  "\u2581Budget": 4583,
  "\u2581traffic": 4584,
  "impact": 4585,
  "=": 4586,
  "\u2581fishing": 4587,
  "Pro": 4588,
  "\u2581division": 4589,
  "\u2581t\u00e9l\u00e9vision": 4590,
  "lan": 4591,
  "\u2581stability": 4592,
  "\u2581Peter": 4593,
  "\u2581sex": 4594,
  "yn": 4595,
  "\u2581fund": 4596,
  "\u2581scale": 4597,
  "SE": 4598,
  "\u2581nouvel": 4599,
  "part": 4600,
  "\u2581phone": 4601,
  "\u2581cap": 4602,
  "PS": 4603,
  "ane": 4604,
  "\u2581d\u00e9mocratie": 4605,
  "pprovisionnement": 4606,
  "\u2581historique": 4607,
  "\u2581recognition": 4608,
  "\u2581pain": 4609,
  "\u2581Church": 4610,
  "\u2581Order": 4611,
  "\u2581Network": 4612,
  "\u2581otherwise": 4613,
  "\u2581involving": 4614,
  "\u2581alimentaires": 4615,
  "\u2581tirer": 4616,
  "TC": 4617,
  "\u2581[...]": 4618,
  "\u2581correspond": 4619,
  "adresse": 4620,
  "\u2581recettes": 4621,
  "\u2581Finally": 4622,
  "\u2581Avant": 4623,
  "\u2581Find": 4624,
  "\u2581refugees": 4625,
  "\u2581unless": 4626,
  "\u2581ca": 4627,
  "\u2581announced": 4628,
  "\u2581encourager": 4629,
  "\u2581observed": 4630,
  "\u25812)": 4631,
  "\u2581minute": 4632,
  "ini": 4633,
  "\u2581Colombie": 4634,
  "\u2581Chi": 4635,
  "\u258162": 4636,
  "\u2581appointed": 4637,
  "/2": 4638,
  "che": 4639,
  "\u2581percentage": 4640,
  "\u2581assess": 4641,
  "wa": 4642,
  "\u2581candidates": 4643,
  "\u2581Chief": 4644,
  "\u2581socio": 4645,
  "oire": 4646,
  "\u2581thank": 4647,
  "\u2581FOR": 4648,
  "\u2581drive": 4649,
  "\u2581matin": 4650,
  "\u2581affect": 4651,
  "ju": 4652,
  "CA": 4653,
  "\u2581inspection": 4654,
  "\u2581calcul": 4655,
  "\u2581Ukraine": 4656,
  "\u2581retraite": 4657,
  "\u2581sujets": 4658,
  "\u2581earlier": 4659,
  "\u2581stress": 4660,
  "\u2581election": 4661,
  "ther": 4662,
  "\u2581tribunaux": 4663,
  "OR": 4664,
  "\u2581vis\u00e9es": 4665,
  "ages": 4666,
  "\u2581utilise": 4667,
  "\u2581unit\u00e9s": 4668,
  "\u2581satellite": 4669,
  "\u2581Share": 4670,
  "\u2581rise": 4671,
  "tant": 4672,
  "\u2581COM": 4673,
  "\u2581collecte": 4674,
  "-6": 4675,
  "\u2581augment\u00e9": 4676,
  "\u2581v\u00e9rit\u00e9": 4677,
  "let": 4678,
  "\u2581pool": 4679,
  "\u2581Repr\u00e9sentant": 4680,
  "\u2581animals": 4681,
  "ateurs": 4682,
  "\u2581annonces": 4683,
  "83": 4684,
  "\u2581leader": 4685,
  "ade": 4686,
  "\u2581plants": 4687,
  "\u2581Jehovah": 4688,
  "\u2581permanente": 4689,
  "\u2581secret": 4690,
  "\u2581Products": 4691,
  "\u2581specifically": 4692,
  "\u2581tes": 4693,
  "\u2581info": 4694,
  "br": 4695,
  "\u2581center": 4696,
  "\u2581Over": 4697,
  "\u00e9change": 4698,
  "\u2581Soci\u00e9t\u00e9": 4699,
  "\u2581entered": 4700,
  "\u258112.": 4701,
  "\u2581card": 4702,
  "\u2581Tra": 4703,
  "\u2581Northern": 4704,
  "\u2581Ro": 4705,
  "\u2581commencer": 4706,
  "\u2581contrats": 4707,
  "\u2581Mexico": 4708,
  "Universit\u00e9": 4709,
  "-12": 4710,
  "\u2581fronti\u00e8res": 4711,
  "\u2581bases": 4712,
  "\u2581Partie": 4713,
  "\u2581marche": 4714,
  "\u2581digital": 4715,
  "\u25811995,": 4716,
  "\u2581Quelle": 4717,
  "\u2581quatri\u00e8me": 4718,
  "\u2581classes": 4719,
  "\u2581devra": 4720,
  "\u2581\u00e2ge": 4721,
  "\u2581Technology": 4722,
  "TS": 4723,
  "\u2581sensibilisation": 4724,
  "\u2581amendment": 4725,
  "\u2581facilement": 4726,
  "\u2581parvenir": 4727,
  "\u2581b\u00e9n\u00e9ficier": 4728,
  "ik": 4729,
  "IA": 4730,
  "\u2581aspect": 4731,
  "].": 4732,
  "\u2581dehors": 4733,
  "\u2581perspectives": 4734,
  "\u2581formulaire": 4735,
  "\u2581acte": 4736,
  "\u2581affaire": 4737,
  "\u2581mines": 4738,
  "\u25811980": 4739,
  "\u2581commissions": 4740,
  "\u2581hands": 4741,
  "\u2581Green": 4742,
  "\u2581adopt\u00e9es": 4743,
  "\u2581Nos": 4744,
  "\u2581observer": 4745,
  "\u2581suffisamment": 4746,
  "\u2581m\u00e8tres": 4747,
  "\u2581humain": 4748,
  "\u2581core": 4749,
  "\u2581Projet": 4750,
  "\u2581Pierre": 4751,
  "\u2581spirit": 4752,
  "\u2581jurisdiction": 4753,
  "\u25812001.": 4754,
  "\u2581UNDP": 4755,
  "\u2581Belgique": 4756,
  "2)": 4757,
  "tern": 4758,
  "ita": 4759,
  "\u2581d\u00e9lais": 4760,
  "TE": 4761,
  "\u2581Thus": 4762,
  "\u25811989": 4763,
  "iez": 4764,
  "\u2581r\u00e9guli\u00e8rement": 4765,
  "\u2581trial": 4766,
  "\u2581lecture": 4767,
  "ap": 4768,
  "mi": 4769,
  "\u2581Montreal": 4770,
  "ya": 4771,
  "\u2581courant": 4772,
  "ay": 4773,
  "\u2581inform\u00e9": 4774,
  "\u2581vi": 4775,
  "\u2581dead": 4776,
  "\u2581launched": 4777,
  "\u2581fournisseurs": 4778,
  "NA": 4779,
  "aud": 4780,
  "initiative": 4781,
  "\u2581difference": 4782,
  "ck": 4783,
  "\u2581Having": 4784,
  "\u2581vice": 4785,
  "app": 4786,
  "\u2581Photo": 4787,
  "\u2581Questions": 4788,
  "\u2581gauche": 4789,
  "\u2581Seigneur": 4790,
  "\u2581broad": 4791,
  "\u2581Summit": 4792,
  "\u2581ski": 4793,
  "-8": 4794,
  "\u2581\u00b7": 4795,
  "\u2581naturel": 4796,
  "\u2581Covenant": 4797,
  "\u2581Control": 4798,
  "\u2581PRO": 4799,
  "\u2581reconnu": 4800,
  "\u2581\u00e9l\u00e8ves": 4801,
  "\u2581consumer": 4802,
  "\u2581prestation": 4803,
  "\u2581Bed": 4804,
  "\u2581transparence": 4805,
  "\u2581commerciaux": 4806,
  "\u2581Belgium": 4807,
  "\u2581copy": 4808,
  "\u25812013,": 4809,
  "\u2581id\u00e9e": 4810,
  "\u2581meaning": 4811,
  "RA": 4812,
  "ica": 4813,
  "\u2581Compte": 4814,
  "\u2581ones": 4815,
  "\u2581(3": 4816,
  "\u2581Pendant": 4817,
  "\u2581Points": 4818,
  "\u2581detention": 4819,
  "\u25811987": 4820,
  "\u2581dossiers": 4821,
  "\u2581Top": 4822,
  "\u2581Framework": 4823,
  "duc": 4824,
  "\u2581espace": 4825,
  "\u2581r\u00e9partition": 4826,
  "This": 4827,
  "\u2581enterprises": 4828,
  "\u2581essentiellement": 4829,
  "AN": 4830,
  "\u2581commence": 4831,
  "\u2581Police": 4832,
  "tan": 4833,
  "\u2581pr\u00e9parer": 4834,
  "\u2581sometimes": 4835,
  "\u2581r\u00e9vision": 4836,
  "obtenir": 4837,
  "\u2581puisque": 4838,
  "ris": 4839,
  "\u2581Post": 4840,
  "ability": 4841,
  "\u2581conforme": 4842,
  "\u2581forest": 4843,
  "\u2581signal": 4844,
  "\u2581Access": 4845,
  "\u2581consequences": 4846,
  "\u2581600": 4847,
  "\u2581drogues": 4848,
  "\u2581rapporteur": 4849,
  "\u2581IP": 4850,
  "\u258166": 4851,
  "\u2581component": 4852,
  "\u00e9t\u00e9": 4853,
  "\u2581largest": 4854,
  "\u2581consid\u00e8re": 4855,
  "\u2581endroit": 4856,
  "agriculture": 4857,
  "\u2581chercheurs": 4858,
  "\u2581contracts": 4859,
  "PR": 4860,
  "\u2581Martin": 4861,
  "\u2581distinction": 4862,
  "\u2581Grande": 4863,
  "\u2581payer": 4864,
  "\u2581concentrations": 4865,
  "\u2581Pakistan": 4866,
  "ised": 4867,
  "\u2581Bill": 4868,
  "iff": 4869,
  "\u2581impacts": 4870,
  "\u2581Year": 4871,
  "\u2581Terre": 4872,
  "\u2581adresse": 4873,
  "\u2581dimensions": 4874,
  "\u2581respective": 4875,
  "\u2581Communication": 4876,
  "del\u00e0": 4877,
  "\u2581repr\u00e9sentent": 4878,
  "\u2581bit": 4879,
  "\u258159": 4880,
  "\u2581storage": 4881,
  "\u2581milliers": 4882,
  "It": 4883,
  "\u2581potentiel": 4884,
  "\u2581pleine": 4885,
  "\u258167": 4886,
  "\u2581blanc": 4887,
  "\u2581\u00e9tape": 4888,
  "\u2581susceptibles": 4889,
  "\u2581largement": 4890,
  "\u2581Bay": 4891,
  "\u2581connexes": 4892,
  "era": 4893,
  "\u2581models": 4894,
  "AB": 4895,
  "ans": 4896,
  "\u2581Civil": 4897,
  "\u2581Skip": 4898,
  "\u2581purchase": 4899,
  "ji": 4900,
  "\u2581Italian": 4901,
  "\u2581differences": 4902,
  "\u2581figures": 4903,
  "\u2581ch\u00f4mage": 4904,
  "\u2581Friday": 4905,
  "\u2581strat\u00e9giques": 4906,
  "\u2581probably": 4907,
  "\u2581reasonable": 4908,
  "\u2581consent": 4909,
  "\u2581participant": 4910,
  "\u2581Even": 4911,
  "\u2581advantage": 4912,
  "\u2581films": 4913,
  "\u2581Training": 4914,
  "\u2581employer": 4915,
  "\u2581Nouveau": 4916,
  "\u2581vitesse": 4917,
  "PA": 4918,
  "\u2581Robert": 4919,
  "Institut": 4920,
  "\u2581jeux": 4921,
  "ally": 4922,
  "\u2581device": 4923,
  "\u2581directrices": 4924,
  "\u2581Deux": 4925,
  "\u2581Van": 4926,
  "\u2581discuss": 4927,
  "\u2581fera": 4928,
  "\u2581Its": 4929,
  "\u2581entr\u00e9e": 4930,
  "\u2581fit": 4931,
  "iz": 4932,
  "\u2581creating": 4933,
  "achat": 4934,
  "\u2581mi": 4935,
  "\u2581professionnel": 4936,
  "\u2581pr\u00e9sidence": 4937,
  "\u2581Implementation": 4938,
  "\u2581walk": 4939,
  "\u2581Christian": 4940,
  "\u2581host": 4941,
  "environ": 4942,
  "\u2581parc": 4943,
  "aider": 4944,
  "\u2581auxquels": 4945,
  "\u2581budg\u00e9taires": 4946,
  "\u2581exist": 4947,
  "\u2581Ou": 4948,
  "\u2581Okay": 4949,
  "\u2581ON": 4950,
  "\u2581r\u00e9ception": 4951,
  "fr": 4952,
  "\u258158": 4953,
  "\u2581pr\u00e9sent\u00e9e": 4954,
  "52": 4955,
  "\u2581oui": 4956,
  "rin": 4957,
  "\u2581Pe": 4958,
  "\u2581delegations": 4959,
  "\u2581truth": 4960,
  "\u2581meilleures": 4961,
  "\u258100": 4962,
  "enregistrement": 4963,
  "\u2581fournis": 4964,
  "\u2581lire": 4965,
  "\u2581crucial": 4966,
  "\u2581PNUD": 4967,
  "\u2581Aux": 4968,
  "\u2581populaire": 4969,
  "\u2581\u0308": 4970,
  "\u2581changed": 4971,
  "\u2581mariage": 4972,
  "\u2581diff\u00e9rence": 4973,
  "\u2581extended": 4974,
  "\u2581draw": 4975,
  "\u2581app": 4976,
  "ces": 4977,
  "\u2581Museum": 4978,
  "\u258161": 4979,
  "za": 4980,
  "\u2581summer": 4981,
  "\u2581favour": 4982,
  "\u2581pr\u00e9c\u00e9dent": 4983,
  "\u2581partenariats": 4984,
  "\u2581powers": 4985,
  "\u2581recorded": 4986,
  "\u2581pr\u00e9occupations": 4987,
  "\u2581consid\u00e9ration": 4988,
  "\u2581wood": 4989,
  "\u2581regime": 4990,
  "\u2581obligatoire": 4991,
  "\u2581v\u00e9ritable": 4992,
  "\u2581v\u00e9rifier": 4993,
  "vo": 4994,
  "ble": 4995,
  "COM": 4996,
  "................": 4997,
  "\u2581\u00e9laboration": 4998,
  "\u2581Trans": 4999,
  "\u2581ads": 5000,
  "\u2581Har": 5001,
  "\u25811994,": 5002,
  "\u2581commerciale": 5003,
  "\u2581Tel": 5004,
  "\u2581nice": 5005,
  "\u2581represented": 5006,
  "\u2581ajout\u00e9": 5007,
  "\u2581rappelle": 5008,
  "\u2581analyses": 5009,
  "\u2581union": 5010,
  "\u2581Lake": 5011,
  "\u2581s\u00e9nateur": 5012,
  "\u2581vis\u00e9s": 5013,
  "\u2581probablement": 5014,
  "\u2581120": 5015,
  "alin\u00e9a": 5016,
  "3.": 5017,
  "\u2581Island": 5018,
  "\u2581contain": 5019,
  "\u2581begin": 5020,
  "\u2581noter": 5021,
  "\u2581vingt": 5022,
  "exportation": 5023,
  "2/": 5024,
  "programme": 5025,
  "\u2581aient": 5026,
  "\u2581coeur": 5027,
  "\u2581refer": 5028,
  "\u2581motion": 5029,
  "\u2581respond": 5030,
  "\u2581\u00e9nergie": 5031,
  "\u2581internet": 5032,
  "\u2581suggested": 5033,
  "MP": 5034,
  "\u2581programming": 5035,
  "\u2581ethnic": 5036,
  "\u2581devient": 5037,
  "ch\u00e9": 5038,
  "\u2581temp\u00e9rature": 5039,
  "\u2581eligible": 5040,
  "\u2581seconde": 5041,
  "\u2581Comp": 5042,
  "\u2581comportement": 5043,
  "\u2581killed": 5044,
  "ru": 5045,
  "\u2581decide": 5046,
  "\u2581liaison": 5047,
  "\u2581represent": 5048,
  "ki": 5049,
  "\u2581protected": 5050,
  "\u2581door": 5051,
  "\u2581wife": 5052,
  "\u2581ha": 5053,
  "\u2581compagnie": 5054,
  "\u2581lutter": 5055,
  "\u2581versions": 5056,
  "\u2581Mor": 5057,
  "\u2581monitor": 5058,
  "\u2581lanc\u00e9": 5059,
  "\u2581story": 5060,
  "\u2581closely": 5061,
  "\u2581thanks": 5062,
  "\u258172": 5063,
  "\u2581businesses": 5064,
  "\u2581earth": 5065,
  "\u2581completely": 5066,
  "\u2581comply": 5067,
  "\u2581Men": 5068,
  "\u2581chiffres": 5069,
  "\u2581climatiques": 5070,
  "\u2581Agriculture": 5071,
  "\u2581emplois": 5072,
  "\u2581character": 5073,
  "\u2581factor": 5074,
  "cy": 5075,
  "\u2581buy": 5076,
  "\u2581Sal": 5077,
  "\u00fc": 5078,
  "\u2581min": 5079,
  "ologie": 5080,
  "\u258102": 5081,
  "\u2581Bi": 5082,
  "\u2581opposition": 5083,
  "\u2581Unit": 5084,
  "\u2581baisse": 5085,
  "ille": 5086,
  "\u2581acceptable": 5087,
  "\u2581accro\u00eetre": 5088,
  "interpr\u00e9tation": 5089,
  "Al": 5090,
  "col": 5091,
  "\u2581sortir": 5092,
  "\u2581Politique": 5093,
  "\u2581fi": 5094,
  "3/": 5095,
  "\u2581incidence": 5096,
  "\u2581effectu\u00e9": 5097,
  "\u2581limit\u00e9e": 5098,
  "\u2581eight": 5099,
  "ology": 5100,
  "engagement": 5101,
  "toi": 5102,
  "\u2581histoire": 5103,
  "ada": 5104,
  "\u2581codes": 5105,
  "\u2581pr\u00e9cise": 5106,
  "\u00e9tablir": 5107,
  "\u2581prochain": 5108,
  "\u2581girl": 5109,
  "\u2581multiple": 5110,
  "\u2581savez": 5111,
  "\u2581pr\u00e9vus": 5112,
  "\u2581dispositif": 5113,
  "\u2581Media": 5114,
  "\u2581failure": 5115,
  "\u25812010.": 5116,
  "\u2581fast": 5117,
  "\u2581Show": 5118,
  "\u2581King": 5119,
  "\u2581temporary": 5120,
  "\u2581ouverte": 5121,
  "\u2581linked": 5122,
  "\u2581pan": 5123,
  "\u2581delivered": 5124,
  "\u2581replaced": 5125,
  "\u2581pose": 5126,
  "\u2581innovative": 5127,
  "\u2581campaign": 5128,
  "\u2581starting": 5129,
  "\u2581limits": 5130,
  "81": 5131,
  "accueil": 5132,
  "\u2581Source": 5133,
  "\u2581guy": 5134,
  "\u2581difficulties": 5135,
  "\u2581bus": 5136,
  "\u2581approaches": 5137,
  "\u2581games": 5138,
  "\u2581select": 5139,
  "\u2581entities": 5140,
  "\u258163": 5141,
  "\u2581examination": 5142,
  "\u2581Royal": 5143,
  "\u2581cartes": 5144,
  "sis": 5145,
  "\u2581flow": 5146,
  "sc": 5147,
  "\u2581Democratic": 5148,
  "\u2581applies": 5149,
  "\u2581CH": 5150,
  "\u2581pi\u00e8ce": 5151,
  "\u2581menace": 5152,
  "intervention": 5153,
  "\u2581rencontre": 5154,
  "tergovernmental": 5155,
  "\u2581souligne": 5156,
  "De": 5157,
  "cadre": 5158,
  "\u2581peur": 5159,
  "\u2581involvement": 5160,
  "\u2581talking": 5161,
  "\u2581internes": 5162,
  "\u2581Manitoba": 5163,
  "\u2581Those": 5164,
  "\u2581express": 5165,
  "\u2581Team": 5166,
  "\u2581vaste": 5167,
  "\u2581faith": 5168,
  "ev": 5169,
  "\u2581camping": 5170,
  "\u2581Only": 5171,
  "ship": 5172,
  "amp": 5173,
  "\u2581grant": 5174,
  "\u2581entend": 5175,
  "\u2581consolidation": 5176,
  "\u2581droite": 5177,
  "\u2581g\u00e9rer": 5178,
  "\u2581implications": 5179,
  "vers": 5180,
  "m\u00e9": 5181,
  "\u2581Israeli": 5182,
  "ANT": 5183,
  "\u2581Espagne": 5184,
  "\u2581m\u00e9decin": 5185,
  "\u2581Villa": 5186,
  "\u2581secure": 5187,
  "pre": 5188,
  "\u2581culturels": 5189,
  "\u2581Turkey": 5190,
  "\u2581easily": 5191,
  "\u2010": 5192,
  "\u2581Australia": 5193,
  "\u2581auquel": 5194,
  "\u2581chercher": 5195,
  "\u2581Did": 5196,
  "\u2581mauvais": 5197,
  "\u2581green": 5198,
  "\u2581hour": 5199,
  "\u2581Ch": 5200,
  "\u2581testing": 5201,
  "\u2581School": 5202,
  "\u2581Lors": 5203,
  "IR": 5204,
  "exposition": 5205,
  "\u2581released": 5206,
  "\u2581hearing": 5207,
  "sh": 5208,
  "\u2581sports": 5209,
  "OC": 5210,
  "\u2581temperature": 5211,
  "inter": 5212,
  "\u2581organisme": 5213,
  "\u2581not\u00e9": 5214,
  "\u2581Science": 5215,
  "\u258113.": 5216,
  "\u2581estim\u00e9": 5217,
  "\u2581grounds": 5218,
  "\u2581Family": 5219,
  "\u2581cities": 5220,
  "\u2581dette": 5221,
  "ulation": 5222,
  "\u2581democratic": 5223,
  "ph": 5224,
  "\u2581Mrs": 5225,
  "\u25812014,": 5226,
  "\u2581reading": 5227,
  "\u258104": 5228,
  "uc": 5229,
  "\u25812009.": 5230,
  "\u2581fun": 5231,
  "\u2581Latin": 5232,
  "\u2581250": 5233,
  "\u2581comprennent": 5234,
  "OL": 5235,
  "\u2581vital": 5236,
  "\u2581clair": 5237,
  "\u2581r\u00e9sidence": 5238,
  "\u2581partout": 5239,
  "\u2581r\u00e9mun\u00e9ration": 5240,
  "\u2581Labour": 5241,
  "kin": 5242,
  "-19": 5243,
  "ib": 5244,
  "\u2581recommends": 5245,
  "\u2581tradition": 5246,
  "\u2581voluntary": 5247,
  "\u2581significantly": 5248,
  "\u2581London": 5249,
  "\u25811988": 5250,
  "offre": 5251,
  "\u2581agency": 5252,
  "og": 5253,
  "\u2581cash": 5254,
  "\u2581dealing": 5255,
  "\u2581confidence": 5256,
  "\u2581statistique": 5257,
  "\u2581Document": 5258,
  "\u2581devices": 5259,
  "\u2581r\u00e9serves": 5260,
  "\u2581Honourable": 5261,
  "\u2581Pacific": 5262,
  "\u2581participating": 5263,
  "\u2581Technical": 5264,
  "ock": 5265,
  "\u2581trouvent": 5266,
  "\u2581Tr\u00e8s": 5267,
  "\u2581st": 5268,
  "\u2581alin\u00e9a": 5269,
  "\u2581officer": 5270,
  "\u2581huit": 5271,
  "\u2581mental": 5272,
  "\u2581paiements": 5273,
  "\u2581engage": 5274,
  "wi": 5275,
  "vironnementale": 5276,
  "\u2581names": 5277,
  "\u2581closed": 5278,
  "\u2581residence": 5279,
  "\u2581Alberta": 5280,
  "\u2581drawn": 5281,
  "\u2581disabilities": 5282,
  "\u2581felt": 5283,
  "\u2581pilot": 5284,
  "ria": 5285,
  "\u2581Maison": 5286,
  "\u2581Marie": 5287,
  "\u2581remplir": 5288,
  "\u2581opened": 5289,
  "\u2581okay": 5290,
  "\u2581\u00e9nerg\u00e9tique": 5291,
  "MA": 5292,
  "\u2581born": 5293,
  "\u2581opinions": 5294,
  "\u2581chances": 5295,
  "\u2581Allez": 5296,
  "gu": 5297,
  "\u2581Society": 5298,
  "\u2581Officer": 5299,
  "bas": 5300,
  "\u2581r\u00e9alis\u00e9": 5301,
  "\u2581p\u00e9nal": 5302,
  "vert": 5303,
  "\u2581adultes": 5304,
  "\u2581Foundation": 5305,
  "\u2581biais": 5306,
  "AIDS": 5307,
  "\u2581pr\u00e9sent\u00e9es": 5308,
  "\u2581minorit\u00e9s": 5309,
  "not": 5310,
  "\u2581box": 5311,
  "avant": 5312,
  "\u2581mark": 5313,
  "Allemagne": 5314,
  "\u2581veuillez": 5315,
  "image": 5316,
  "\u2581Street": 5317,
  "\u2581\u00e9change": 5318,
  "\u2581proximit\u00e9": 5319,
  "\u2581threat": 5320,
  "\u2581Figure": 5321,
  "ati": 5322,
  "\u2581d\u00e9p\u00f4t": 5323,
  "\u2581virus": 5324,
  "\u2581Breakfast": 5325,
  "OP": 5326,
  "II": 5327,
  "\u2581Employment": 5328,
  "\u2581availability": 5329,
  "cho": 5330,
  "\u2581skin": 5331,
  "\u2581am\u00e9lioration": 5332,
  "\u2581LES": 5333,
  "\u2581(4)": 5334,
  "\u2581entit\u00e9s": 5335,
  "\u2581indispensable": 5336,
  "\u2581hausse": 5337,
  "\u2581\u00e9valuations": 5338,
  "\u2581Salle": 5339,
  "cu": 5340,
  "SI": 5341,
  "\u2581Initiative": 5342,
  "\u2581remained": 5343,
  "\u2581chacune": 5344,
  "\u2581female": 5345,
  "\u2581update": 5346,
  "\u2581auront": 5347,
  "\u2581happy": 5348,
  "Etat": 5349,
  "\u00e9ri": 5350,
  "\u2581formulation": 5351,
  "\u2581equipped": 5352,
  "\u2581authorized": 5353,
  "\u2581Chair": 5354,
  "\u2581gain": 5355,
  "\u2581t\u00e2che": 5356,
  "existence": 5357,
  "\u2581neuf": 5358,
  "oli": 5359,
  "ill": 5360,
  "\u2581posts": 5361,
  "m\u00eames": 5362,
  "\u2581IT": 5363,
  "\u2581pauvres": 5364,
  "\u2581reducing": 5365,
  "\u258188": 5366,
  "\u2581Parmi": 5367,
  "\u2581achieving": 5368,
  "\u2581presentation": 5369,
  "\u2581Right": 5370,
  "\u2581possibles": 5371,
  "\u2581Vi": 5372,
  "ture": 5373,
  "\u2581visit\u00e9": 5374,
  "\u2581transparent": 5375,
  "apprentissage": 5376,
  "\u25811993,": 5377,
  "\u2581com": 5378,
  "\u2581f\u00e9licite": 5379,
  "imp\u00f4t": 5380,
  "\u2581allant": 5381,
  "\u2581Ri": 5382,
  "\u2581livraison": 5383,
  "hr": 5384,
  "\u2581urgent": 5385,
  "\u2581package": 5386,
  "\u2581Li": 5387,
  "\u2581drugs": 5388,
  "\u2581goes": 5389,
  "\u2581protocole": 5390,
  "\u2581100%": 5391,
  "\u2581organis\u00e9e": 5392,
  "MO": 5393,
  "\u2581characteristics": 5394,
  "\u2581\u2212": 5395,
  "\u2581travaille": 5396,
  "my": 5397,
  "ques": 5398,
  "\")": 5399,
  "\u2581statistical": 5400,
  "\u2581Ho": 5401,
  "\u2581Conditions": 5402,
  "\u2581climat": 5403,
  "\u2581bande": 5404,
  "\u2581previously": 5405,
  "\u2581proche": 5406,
  "\u2581save": 5407,
  "\u2581Sommet": 5408,
  "\u2581charg\u00e9e": 5409,
  "EUR": 5410,
  "importe": 5411,
  "\u2581ratio": 5412,
  "\u2581budg\u00e9taire": 5413,
  "\u2581biennal": 5414,
  "ring": 5415,
  "\u2581eyes": 5416,
  "\u2581r\u00e9soudre": 5417,
  "\u258198": 5418,
  "\u00e9tranger": 5419,
  "\u258114.": 5420,
  "\u2581reviewed": 5421,
  "\u2581orientation": 5422,
  "\u2581aims": 5423,
  "\u2581counter": 5424,
  "experts": 5425,
  "\u2581parking": 5426,
  "\u2581knew": 5427,
  "\u2581combined": 5428,
  "-11": 5429,
  "\u2581appuyer": 5430,
  "Ouest": 5431,
  "\u2581manage": 5432,
  "\u2581Monday": 5433,
  "\u2581assure": 5434,
  "\u2581summary": 5435,
  "\u2581Currently": 5436,
  "\u2581plaisir": 5437,
  "\u2581Agenda": 5438,
  "\u2581hot": 5439,
  "\u2581numerous": 5440,
  "\u2581hair": 5441,
  "\u2581800": 5442,
  "\u2581senior": 5443,
  "\u2581Pi": 5444,
  "\u2581island": 5445,
  "\u2581Ju": 5446,
  "rent": 5447,
  "\u2581clean": 5448,
  "\u2581d\u00e9couvrir": 5449,
  "ash": 5450,
  "\u2581ONG": 5451,
  "\u2581findings": 5452,
  "bre": 5453,
  "\u2581Power": 5454,
  "\u2581belle": 5455,
  "\u2581garanties": 5456,
  "\u2581vivant": 5457,
  "\u2581concrete": 5458,
  "\u2581identity": 5459,
  "\u2581\u00e9volution": 5460,
  "\u258168": 5461,
  "\u2581respectivement": 5462,
  "\u2581J\u00e9hovah": 5463,
  "\u2581correspondant": 5464,
  "\u2581sp\u00e9ciaux": 5465,
  "\u2581defence": 5466,
  "Canada": 5467,
  "\u2581considers": 5468,
  "ella": 5469,
  "\u2581transaction": 5470,
  "\u00ed": 5471,
  "\u2581destin\u00e9es": 5472,
  "\u2581Vancouver": 5473,
  "\u2581int\u00e9gr\u00e9e": 5474,
  "\u2581certaine": 5475,
  "\u2581constitution": 5476,
  "\u2581immediate": 5477,
  "\u2581habitants": 5478,
  "\u2581comp\u00e9tentes": 5479,
  "\u2581copies": 5480,
  "approche": 5481,
  "ase": 5482,
  "\u2581tables": 5483,
  "\u2581equivalent": 5484,
  "\u2581teaching": 5485,
  "\u2581designated": 5486,
  "\u2581click": 5487,
  "amour": 5488,
  "\u2581Rules": 5489,
  "\u2581parent": 5490,
  "free": 5491,
  "\u2581served": 5492,
  "\u2581proper": 5493,
  "\u2581officielle": 5494,
  "\u2581Further": 5495,
  "\u2581Donc": 5496,
  "\u2581papier": 5497,
  "\u2581banques": 5498,
  "\u2581soumettre": 5499,
  "\u2581norme": 5500,
  "\u2581retard": 5501,
  "\u2581Greece": 5502,
  "\u2581commis": 5503,
  "\u2581Berlin": 5504,
  "\u2581\u00e9chelle": 5505,
  "sida": 5506,
  "\u2581expenses": 5507,
  "\u2581break": 5508,
  "\u2581flux": 5509,
  "sse": 5510,
  "\u2581envers": 5511,
  "\u2581faudrait": 5512,
  "1/": 5513,
  "\u2581num\u00e9rique": 5514,
  "\u2581Turquie": 5515,
  "\u2581birth": 5516,
  "els": 5517,
  "\u2581pourront": 5518,
  "\u2581alia": 5519,
  "\u2581peacekeeping": 5520,
  "\u2581permit": 5521,
  "\u2581Sustainable": 5522,
  "\u2581focused": 5523,
  "\u2581estate": 5524,
  "mor": 5525,
  "\u2581tasks": 5526,
  "\u2581euros": 5527,
  "\u2581ideas": 5528,
  "effet": 5529,
  "SA": 5530,
  "\u2581season": 5531,
  "\u2581twenty": 5532,
  "\u2581Star": 5533,
  "\u2581respectively": 5534,
  "importation": 5535,
  "cept": 5536,
  "\u2581List": 5537,
  "MS": 5538,
  "ile": 5539,
  "ag": 5540,
  "\u2581cinquante": 5541,
  "\u2581vas": 5542,
  "\u2581visible": 5543,
  "\u2581sexuelle": 5544,
  "\u2581wine": 5545,
  "\u2581Industry": 5546,
  "\u2581montr\u00e9": 5547,
  "\u2581ch": 5548,
  "\u2581arabe": 5549,
  "\u00e8ne": 5550,
  "\u2581remaining": 5551,
  "\u2581mo": 5552,
  "\u2581for\u00eats": 5553,
  "\u2581imports": 5554,
  "p\u00e9": 5555,
  "\u2581territorial": 5556,
  "attention": 5557,
  "\u2581instead": 5558,
  "\u2581ISO": 5559,
  "ug": 5560,
  "\u2581producers": 5561,
  "\u2581disarmament": 5562,
  "\u2581sign\u00e9": 5563,
  "\u2581comp": 5564,
  "82": 5565,
  "\u2581annuelle": 5566,
  "\u2581Te": 5567,
  "\u2581r\u00e9pond": 5568,
  "ros": 5569,
  "las": 5570,
  "\u2581Mc": 5571,
  "\u2581%)": 5572,
  "\u2581\u00e9lev\u00e9s": 5573,
  "\u2581encouraged": 5574,
  "\u2581Communities": 5575,
  "\u2581latter": 5576,
  "\u2581kept": 5577,
  "\u2581customs": 5578,
  "\u2581relief": 5579,
  "\u2581qualifications": 5580,
  "\u2581\u00e9tablie": 5581,
  "\u2581s\u00e9ances": 5582,
  "RO": 5583,
  "ell": 5584,
  "\u2581]": 5585,
  "\u2581south": 5586,
  "ists": 5587,
  "\u2581Today": 5588,
  "\u2581situ\u00e9e": 5589,
  "i\u00e8re": 5590,
  "\u2581import": 5591,
  "\u2581Next": 5592,
  "mont": 5593,
  "ding": 5594,
  "\u2581submission": 5595,
  "\u2581Statistics": 5596,
  "sp": 5597,
  "\u2581wait": 5598,
  "\u2581titulaire": 5599,
  "9/": 5600,
  "pour": 5601,
  "\u2581fees": 5602,
  "\u2581appropri\u00e9es": 5603,
  "\u2581allocation": 5604,
  "mat": 5605,
  "\u2581transparency": 5606,
  "\u2581sortie": 5607,
  "\u2581watch": 5608,
  "\u2581Bull": 5609,
  "\u2581consumers": 5610,
  "\u2581Following": 5611,
  "eg": 5612,
  "\u2581fourniture": 5613,
  "\u2581annonc\u00e9": 5614,
  ".\u00bb": 5615,
  "\u2581esprit": 5616,
  "\u2581enfin": 5617,
  "PI": 5618,
  "\u2581(4": 5619,
  "5%": 5620,
  "\u2581Accord": 5621,
  "ction": 5622,
  "\u2581mat\u00e9riaux": 5623,
  "\u2581ob": 5624,
  "act": 5625,
  "\u2581d\u00e9crit": 5626,
  "\u2581north": 5627,
  "\u2581specialized": 5628,
  "\u2581database": 5629,
  "\u2581Archives": 5630,
  "\u2581pla\u00eet": 5631,
  "\u2581firm": 5632,
  "\u2581appears": 5633,
  "mp": 5634,
  "\u2581int\u00e9gration": 5635,
  "\u2581Sweden": 5636,
  "\u2581Annual": 5637,
  "DA": 5638,
  "\u2581finances": 5639,
  "\u2581multilateral": 5640,
  "\u2581Indian": 5641,
  "\u2581Col": 5642,
  "\u2581democracy": 5643,
  "\u2581requis": 5644,
  "sa": 5645,
  "\u2581Vol": 5646,
  "EX": 5647,
  "\u2581importations": 5648,
  "\u2581despite": 5649,
  "essai": 5650,
  "\u2581modes": 5651,
  "\u2581joue": 5652,
  "\u2581expansion": 5653,
  "\u2581pass": 5654,
  "\u2581degr\u00e9": 5655,
  "\u2581handicap\u00e9es": 5656,
  "\u2581Assessment": 5657,
  "\u2581Back": 5658,
  "\u2581cl\u00e9": 5659,
  "\u2581mains": 5660,
  "\u2581Mer": 5661,
  "\u2581reconstruction": 5662,
  "\u2581Contactez": 5663,
  "\u2581vulnerable": 5664,
  "side": 5665,
  "\u2581d\u00e9fi": 5666,
  "\u2581browser": 5667,
  "\u2581baby": 5668,
  "\u2581welcomed": 5669,
  "\u2581experiences": 5670,
  "\u2581Pan": 5671,
  "\u2581restaurants": 5672,
  "\u2581concert": 5673,
  "NO": 5674,
  "\u2581aides": 5675,
  "\u2581intellectuelle": 5676,
  "\u2581Bell": 5677,
  "\u258173": 5678,
  "\u2581Lorsqu": 5679,
  "\u2581elected": 5680,
  "activit\u00e9s": 5681,
  "\u2581allez": 5682,
  "\u2581Bra": 5683,
  "\u2581investments": 5684,
  "\u2581Es": 5685,
  "board": 5686,
  "\u2581Aucun": 5687,
  "\u2581Radio": 5688,
  "\u2581naissance": 5689,
  "\u2581pr\u00e9alable": 5690,
  "\u2581Chambres": 5691,
  "\u2581Plusieurs": 5692,
  "ines": 5693,
  "\u2581performed": 5694,
  "\u2581effectuer": 5695,
  "\u2581Lu": 5696,
  "fer": 5697,
  "\u2581Master": 5698,
  "\u2581sorry": 5699,
  "\u258196": 5700,
  "\u2581popular": 5701,
  "har": 5702,
  "\u2581suspension": 5703,
  "\u2581anyone": 5704,
  "\u2581profiter": 5705,
  "\u2581declaration": 5706,
  "od": 5707,
  "tain": 5708,
  "\u2581element": 5709,
  "\u2581dirigeants": 5710,
  "\u2581Actuellement": 5711,
  "\u2581doctor": 5712,
  "lement": 5713,
  "\u2581id\u00e9es": 5714,
  "tal": 5715,
  "\u2581apartment": 5716,
  "\u2581concern\u00e9es": 5717,
  "\u2581engine": 5718,
  "log": 5719,
  "\u2581Suite": 5720,
  "\u2581confirmed": 5721,
  "\u258194": 5722,
  "MC": 5723,
  "\u2581s\u00fbret\u00e9": 5724,
  "\u2581licences": 5725,
  "\u2581vues": 5726,
  "DP": 5727,
  "\u2581secondary": 5728,
  "\u2581Club": 5729,
  "ping": 5730,
  "\u2581inclusion": 5731,
  "\u2581raise": 5732,
  "\u2581Anti": 5733,
  "\u2581Press": 5734,
  "\u2581accident": 5735,
  "cent": 5736,
  "\u2581ind\u00e9pendant": 5737,
  "\u2581diversity": 5738,
  "\u2581Culture": 5739,
  "\u2581operate": 5740,
  "\u2581t\u00f4t": 5741,
  "\u2581Chinese": 5742,
  "\u2581augmenter": 5743,
  "\u2581nomination": 5744,
  "\u00ea": 5745,
  "\u2581Gar": 5746,
  "\u2581Sun": 5747,
  "No": 5748,
  "fin": 5749,
  "\u2581customer": 5750,
  "\u2581thousands": 5751,
  "hu": 5752,
  "autorisation": 5753,
  "\u2581scheme": 5754,
  "\u2581settlement": 5755,
  "\u2581adaptation": 5756,
  "\u2581deep": 5757,
  "\u2581join": 5758,
  "\u2581cor": 5759,
  "\u2581Sans": 5760,
  "\u2581Travel": 5761,
  "are": 5762,
  "For": 5763,
  "\u2581primarily": 5764,
  "\u2581thereof": 5765,
  "\u2581wants": 5766,
  "\u2581Administrative": 5767,
  "\u2581programmation": 5768,
  "\u2581diff\u00e9rences": 5769,
  "\u00e9tudes": 5770,
  "\u2581represents": 5771,
  "\u2581holding": 5772,
  "\u2581sold": 5773,
  "\u258197": 5774,
  "\u2581calendrier": 5775,
  "\u2581sentence": 5776,
  "\u2581unemployment": 5777,
  "\u2581Once": 5778,
  "uff": 5779,
  "\u2581membership": 5780,
  "\u2581adress\u00e9e": 5781,
  "\u2581Super": 5782,
  "ration": 5783,
  "house": 5784,
  "\u2581montrer": 5785,
  "\u2581White": 5786,
  "\u2581fourth": 5787,
  "\u2581Sam": 5788,
  "\u2581certificat": 5789,
  "\u2581Cor\u00e9e": 5790,
  "\u2581auraient": 5791,
  "\u2581navires": 5792,
  "gg": 5793,
  "\u2581reality": 5794,
  "\u2581Produits": 5795,
  "\u2581roi": 5796,
  "ites": 5797,
  "\u2581Communications": 5798,
  "\u2581notion": 5799,
  "\u2581Last": 5800,
  "TION": 5801,
  "\u2581agissant": 5802,
  "\u2581chemical": 5803,
  "\u2581supervision": 5804,
  "bra": 5805,
  "\u2581C\u00f4te": 5806,
  "\u258199": 5807,
  "\u2581PE": 5808,
  "\u2581occupation": 5809,
  "\u2581motifs": 5810,
  "\u2581penser": 5811,
  "\u2581biennium": 5812,
  "\u2581d\u00e9bats": 5813,
  "\u2581quartier": 5814,
  "\u2581plainte": 5815,
  "\u2581conversion": 5816,
  "\u2581USA": 5817,
  "\u2581parl\u00e9": 5818,
  "ts": 5819,
  "\u2581\u00e9tablis": 5820,
  "iers": 5821,
  "\u2581exportations": 5822,
  "\u2581suitable": 5823,
  "augmentation": 5824,
  "\u2581partnerships": 5825,
  "\u2581PME": 5826,
  "\u2581indiquer": 5827,
  "\u2581contacter": 5828,
  "\u2581accommodation": 5829,
  ".1)": 5830,
  "\u2581Peace": 5831,
  "\u2581Rwanda": 5832,
  "\u2581Sign": 5833,
  "\u2581sharing": 5834,
  "\u2581con\u00e7u": 5835,
  "\u2581invitation": 5836,
  "\u2581universal": 5837,
  "\u2581exposure": 5838,
  "\u2581guys": 5839,
  "\u2581intervenants": 5840,
  "7/": 5841,
  "\u2581Design": 5842,
  "\u2581receiving": 5843,
  "\u2581adolescents": 5844,
  "PE": 5845,
  "\u2581Time": 5846,
  "\u2581malgr\u00e9": 5847,
  "erie": 5848,
  "ys": 5849,
  "\u2581Take": 5850,
  "\u2581actifs": 5851,
  "\u2581chapter": 5852,
  "\u2581rouge": 5853,
  "ENT": 5854,
  "\u2581banks": 5855,
  "\u2581Gr\u00e8ce": 5856,
  "\u2581suggestions": 5857,
  "ski": 5858,
  "\u2581mid": 5859,
  "ute": 5860,
  "\u2581\u00e9tapes": 5861,
  "\u2581subsequent": 5862,
  "\u2581utiles": 5863,
  "\u2581poss\u00e8de": 5864,
  "\u2581Application": 5865,
  "\u2581\u00e9quipes": 5866,
  "\u2581track": 5867,
  "\u2581\u00e9lectroniques": 5868,
  "\u2581appointment": 5869,
  "\u25811:": 5870,
  "hi": 5871,
  "ext\u00e9rieur": 5872,
  "\u2581similaires": 5873,
  "\u2581Assistance": 5874,
  "\u2581Availability": 5875,
  "\u2581dat\u00e9e": 5876,
  "\u2581trends": 5877,
  "including": 5878,
  "\u2581illegal": 5879,
  "\u2581dedicated": 5880,
  "\u2581efficacement": 5881,
  "\u2581match": 5882,
  "\u2581Gr\u00e2ce": 5883,
  "nel": 5884,
  "\u2581ECU": 5885,
  "\u2581adjoint": 5886,
  "\u2581stages": 5887,
  "\u2581\u00e9limination": 5888,
  "\u2581autorit\u00e9": 5889,
  "\u2581treated": 5890,
  "\u2581d\u00e9faut": 5891,
  "\u2581Another": 5892,
  "\u2581module": 5893,
  "\u2581r\u00e9el": 5894,
  "\u2581b\u00e2timent": 5895,
  "UM": 5896,
  "\u2581carrying": 5897,
  "\u2581Corporation": 5898,
  "4,": 5899,
  "\u2581exclusive": 5900,
  "\u2581fa": 5901,
  "\u2581conduit": 5902,
  "\u2581portion": 5903,
  "\u2581noir": 5904,
  "\u2581isn": 5905,
  "\u2581Syst\u00e8me": 5906,
  "\u2581livres": 5907,
  "ert": 5908,
  "\u2581po": 5909,
  "\u00e2t": 5910,
  "\u2581assurance": 5911,
  "\u2581Us": 5912,
  "\u25812012.": 5913,
  "ras": 5914,
  "\u2581perdu": 5915,
  "ado": 5916,
  "\u2581played": 5917,
  "\u2581Key": 5918,
  "dia": 5919,
  "\u2581Will": 5920,
  "id\u00e9e": 5921,
  "\u2581Lo": 5922,
  "\u2581Peut": 5923,
  "\u2581COMMISSION": 5924,
  "\u258108": 5925,
  "cer": 5926,
  "oul": 5927,
  "\u2581Russia": 5928,
  "\u2581diminution": 5929,
  "\u258193": 5930,
  "\u2581(212)": 5931,
  "\u2581duration": 5932,
  "\u2581rel\u00e8ve": 5933,
  "-15": 5934,
  "\u2581title": 5935,
  "\u2581Su\u00e8de": 5936,
  "nie": 5937,
  "\u2581Adoption": 5938,
  "lect": 5939,
  "\u2581Mus\u00e9e": 5940,
  "\u258187": 5941,
  "\u2581Political": 5942,
  "\u2581couleurs": 5943,
  "-02": 5944,
  "\u2581pilote": 5945,
  "avons": 5946,
  "\u2581undertaking": 5947,
  "\u2581semi": 5948,
  "\u2581Ka": 5949,
  "\u2581Pen": 5950,
  "\u2581Haiti": 5951,
  "\u2581panel": 5952,
  "\u2581Finance": 5953,
  "\u2581extr\u00eamement": 5954,
  "\u258184": 5955,
  "\u2581patrimoine": 5956,
  "\u2581constitutionnel": 5957,
  "\u2581r\u00e9formes": 5958,
  "\u2581competitive": 5959,
  "\u25812011.": 5960,
  "\u2581mari": 5961,
  "\u2581substantial": 5962,
  "DC": 5963,
  "\u2581Chamber": 5964,
  "\u2581appareils": 5965,
  "ata": 5966,
  "lip": 5967,
  "\u2581targets": 5968,
  "\u2581Photos": 5969,
  "aw": 5970,
  "\u2581Bas": 5971,
  "\u2581candidate": 5972,
  "\u2581Countries": 5973,
  "\u2581Model": 5974,
  "\u2581r\u00e9duit": 5975,
  "\u2581audio": 5976,
  "\u2581subventions": 5977,
  "\u2581Gi": 5978,
  "\u2581Affaires": 5979,
  "\u2581Palestine": 5980,
  "\u2581SA": 5981,
  "\u2581object": 5982,
  "\u2581budgets": 5983,
  "\u25811999.": 5984,
  "\u2581ideal": 5985,
  "\u2581rose": 5986,
  "\u2581outil": 5987,
  "\u2581imposed": 5988,
  "\u2581sc\u00e8ne": 5989,
  "\u2581color": 5990,
  "\u2581extremely": 5991,
  "\u2581UK": 5992,
  "\u2581pr\u00e9cis": 5993,
  "&": 5994,
  "\u2581kill": 5995,
  "-9": 5996,
  "\u2581priv\u00e9s": 5997,
  "\u2581jeunesse": 5998,
  "\u2581Ab": 5999,
  "\u2581devront": 6000,
  "\u2581destin\u00e9": 6001,
  "\u2581ajouter": 6002,
  "\u2581Columbia": 6003,
  "\u258103": 6004,
  "\u2581d\u00e9termination": 6005,
  "sch": 6006,
  "\u2581pertes": 6007,
  "\u258169": 6008,
  "\u2581Institut": 6009,
  "Ma": 6010,
  "AS": 6011,
  "-20": 6012,
  "\u2581combination": 6013,
  "(3)": 6014,
  "\u2581Korea": 6015,
  "\u2581sample": 6016,
  "\u2581caf\u00e9": 6017,
  "\u2581Brazil": 6018,
  "\u2581contr\u00f4les": 6019,
  "uv": 6020,
  "illa": 6021,
  "\u2581acquisition": 6022,
  "\u2581van": 6023,
  "\u2581Thank": 6024,
  "\u2581Ceci": 6025,
  "\u2581Demande": 6026,
  "ami": 6027,
  "\u2581dispositifs": 6028,
  "\u2581considerable": 6029,
  "\u2581mineurs": 6030,
  "\u2581Place": 6031,
  "\u2581download": 6032,
  "\u2581determination": 6033,
  "igne": 6034,
  "\u2581Deputy": 6035,
  "\u2581couverture": 6036,
  "\u2581repr\u00e9sentation": 6037,
  "\u2581autoris\u00e9": 6038,
  "\u2581Standard": 6039,
  "\u2581Sierra": 6040,
  "\u2581Toute": 6041,
  "\u2581detail": 6042,
  "\u2581figurent": 6043,
  "\u2581Pacifique": 6044,
  "rate": 6045,
  "\u2581television": 6046,
  "\u2581marques": 6047,
  "\u2581tourisme": 6048,
  "TI": 6049,
  "\u2581ST": 6050,
  "\u2581bilateral": 6051,
  "affaire": 6052,
  "\u2581sets": 6053,
  "\u2581routes": 6054,
  "\u2581noms": 6055,
  "\u2581vois": 6056,
  "\u2581inclus": 6057,
  "\u2581bis": 6058,
  "\u2581titres": 6059,
  "\u2581int\u00e9gr\u00e9": 6060,
  "\u2581Book": 6061,
  "\u2581\u00e9lev\u00e9e": 6062,
  "\u2581choisi": 6063,
  "\u2581increasingly": 6064,
  "RI": 6065,
  "\u2581Egypt": 6066,
  "\u2581thinking": 6067,
  "bit": 6068,
  "\u2581d\u00e9pend": 6069,
  "\u2581lose": 6070,
  "\u2581facteur": 6071,
  "\u2581Their": 6072,
  "\u2581hauteur": 6073,
  "\u2581ext\u00e9rieur": 6074,
  "\u2581Millennium": 6075,
  "\u258116.": 6076,
  "\u2581compatible": 6077,
  "\u2581facility": 6078,
  "Je": 6079,
  "\u258176": 6080,
  "\u2581myself": 6081,
  "\u2581offering": 6082,
  "\u2581relatively": 6083,
  "\u25811985": 6084,
  "PT": 6085,
  "\u2581saison": 6086,
  "\u2581Evaluation": 6087,
  "\u2581Mark": 6088,
  "\u2581plaintes": 6089,
  "\u2581continent": 6090,
  "\u2581complexe": 6091,
  "ures": 6092,
  "\u2581familiale": 6093,
  "lis": 6094,
  "\u2581trip": 6095,
  "\u25812020": 6096,
  "\u258106": 6097,
  "\u2581d\u00e9cider": 6098,
  "\u2581exige": 6099,
  "\u2581partager": 6100,
  "SR": 6101,
  "\u2581constat\u00e9": 6102,
  "\u2581emp\u00eacher": 6103,
  "\u2581profil": 6104,
  "\u2581controls": 6105,
  "AG": 6106,
  "\u2581\u00e9liminer": 6107,
  "\u2581occur": 6108,
  "\u2581r\u00e9gimes": 6109,
  "\u2581running": 6110,
  "red": 6111,
  "\u2581jardin": 6112,
  "-7": 6113,
  "ray": 6114,
  "\u2581addressing": 6115,
  "\u2581tendances": 6116,
  "\u2581objets": 6117,
  "\u2581structural": 6118,
  "\u2581maintained": 6119,
  "ori": 6120,
  "\u2581store": 6121,
  "\u2581accomplis": 6122,
  "\u2581essentiels": 6123,
  "appliquer": 6124,
  "\u2581Atlantic": 6125,
  "\u2581tra": 6126,
  "\u2581Father": 6127,
  "\u2581Premi\u00e8re": 6128,
  "\u2581auteur": 6129,
  "?\"": 6130,
  "\u2581larger": 6131,
  "\u2581Center": 6132,
  "abilit\u00e9": 6133,
  "\u2581conformes": 6134,
  "\u2581flight": 6135,
  "\u2581career": 6136,
  "\u2581certificate": 6137,
  "\u2581cha\u00eene": 6138,
  "\u2581Pr\u00e9": 6139,
  "\u2581Saskatchewan": 6140,
  "\u2581Madrid": 6141,
  "\u2581maximale": 6142,
  "adh\u00e9sion": 6143,
  "DR": 6144,
  "\u2581rental": 6145,
  "\u2581consid\u00e9rant": 6146,
  "\u2581diseases": 6147,
  "\u25811986": 6148,
  "\u2581Tom": 6149,
  "\u2581deliver": 6150,
  "\u2581constant": 6151,
  "\u2581Common": 6152,
  "\u2581pr\u00e9sentant": 6153,
  "5/": 6154,
  "\u2581africaine": 6155,
  "\u2581Thursday": 6156,
  "\u2581d\u00e9tenus": 6157,
  "\u2581Life": 6158,
  "\u2581manger": 6159,
  "\u2581dangerous": 6160,
  "cul": 6161,
  "\u2581invit\u00e9s": 6162,
  "sen": 6163,
  "\u00e9limination": 6164,
  "\u2581Country": 6165,
  "\u2581donateurs": 6166,
  "\u258189": 6167,
  "/4": 6168,
  "\u2581increases": 6169,
  "\u2581masse": 6170,
  "\u2581Draft": 6171,
  "\u2581economies": 6172,
  "\u2581complaint": 6173,
  "istic": 6174,
  "\u2581invit\u00e9": 6175,
  "\u2581voulu": 6176,
  "\u2581possession": 6177,
  "\u2581Nom": 6178,
  "\u2581voies": 6179,
  "\u2581updated": 6180,
  "\u2581seem": 6181,
  "\u2581territories": 6182,
  "You": 6183,
  "mal": 6184,
  "ick": 6185,
  "\u2581Name": 6186,
  "\u2581Gaza": 6187,
  "\u2581periods": 6188,
  "\u2581Ga": 6189,
  "\u2581capitale": 6190,
  "\u2581pi": 6191,
  "-03": 6192,
  "\u2581montants": 6193,
  "\u2581Mexique": 6194,
  "\u2581contribu\u00e9": 6195,
  "\u2581workshop": 6196,
  "\u2581\u00e9quitable": 6197,
  "\u2581enregistr\u00e9": 6198,
  "nu": 6199,
  "ition": 6200,
  "ult": 6201,
  "\u2581banque": 6202,
  "\u2581died": 6203,
  "\u2581Change": 6204,
  "\u2581l\u00e9gislatives": 6205,
  "\u2581complaints": 6206,
  "\u2581managed": 6207,
  "unit\u00e9": 6208,
  "ual": 6209,
  "ack": 6210,
  "\u2581Mag": 6211,
  "\u2581D\u00e9veloppement": 6212,
  "\u2581Middle": 6213,
  "\u2581instances": 6214,
  "\u2581fifty": 6215,
  "\u2581firms": 6216,
  "\u2581moderne": 6217,
  "gon": 6218,
  "\u2581proc\u00e9d\u00e9": 6219,
  "\u2581vent": 6220,
  "\u2581Long": 6221,
  "\u2581\u00e9lectrique": 6222,
  "pol": 6223,
  "\u2581generation": 6224,
  "\u2581arts": 6225,
  "\u2581becomes": 6226,
  "\u2581estimates": 6227,
  "Orient": 6228,
  "\u2581corporate": 6229,
  "/1": 6230,
  "\u2581vis\u00e9e": 6231,
  "ali": 6232,
  "\u2581Like": 6233,
  "\u2581attack": 6234,
  "\u2581r\u00e9gler": 6235,
  "\u2581ya": 6236,
  "\u2581d\u00e9c\u00e8s": 6237,
  "\u2581explique": 6238,
  "\u2581constitute": 6239,
  "\u2581window": 6240,
  "\u2581accidents": 6241,
  "\u2581vite": 6242,
  "\u2581outcomes": 6243,
  "\u2581exp\u00e9riences": 6244,
  "/10": 6245,
  "ature": 6246,
  "CR": 6247,
  "\u2581Promotion": 6248,
  "\u2581\u00e9quipements": 6249,
  "pl": 6250,
  "\u258186": 6251,
  "ole": 6252,
  "\u2581procurement": 6253,
  "\u2581unit\u00e9": 6254,
  "\u2581Austria": 6255,
  "\u2581Festival": 6256,
  "\u2581ship": 6257,
  "\u2581compr\u00e9hension": 6258,
  "mb": 6259,
  "\u2581Amendment": 6260,
  "\u2581\u00e9conomies": 6261,
  "ren": 6262,
  "\u2581villages": 6263,
  "\u2581compos\u00e9": 6264,
  "\u2581finally": 6265,
  "din": 6266,
  "\u2581cour": 6267,
  "mark": 6268,
  "MI": 6269,
  "\u2581Strat\u00e9gie": 6270,
  "\u2581obtenus": 6271,
  "\u2581vendredi": 6272,
  "\u2581Costa": 6273,
  "fe": 6274,
  "\u2581d\u00e9pos\u00e9": 6275,
  "\u2581Tax": 6276,
  "\u2581Aujourd": 6277,
  "\u2581finale": 6278,
  "\u2581DLL": 6279,
  "\u2581strength": 6280,
  "\u2581proposer": 6281,
  "ches": 6282,
  "\u00e9taient": 6283,
  "\u2581Region": 6284,
  "ates": 6285,
  "pon": 6286,
  "\u2581lac": 6287,
  "euros": 6288,
  "\u2581pr\u00e9voir": 6289,
  "\u258171": 6290,
  "\u2581Have": 6291,
  "\u2581Maybe": 6292,
  "\u2581periodic": 6293,
  "\u2581garder": 6294,
  "\u2581George": 6295,
  "\u2581airport": 6296,
  "\u2581appelle": 6297,
  "\u2581administrations": 6298,
  "\u2581reflected": 6299,
  "installation": 6300,
  "\u2581actors": 6301,
  "ttes": 6302,
  "\u2581Item": 6303,
  "\u2581particuli\u00e8res": 6304,
  "\u2581Mal": 6305,
  "\u2581ceci": 6306,
  "\u2581heureux": 6307,
  "\u2581%.": 6308,
  "\u2581brother": 6309,
  "\u2581lu": 6310,
  "\u2581t\u00e9l\u00e9": 6311,
  "\u2581shopping": 6312,
  "\u2581Wednesday": 6313,
  "\u00f3": 6314,
  "\u2581properly": 6315,
  "\u2581Ouais": 6316,
  "\u2581peau": 6317,
  "af": 6318,
  "ME": 6319,
  "ey": 6320,
  "\u2581Moyen": 6321,
  "\u2581technological": 6322,
  "\u2581spent": 6323,
  "\u2581pensions": 6324,
  "\u2581Puis": 6325,
  "\u2581Caribbean": 6326,
  "\u2581Follow": 6327,
  "\u2581amendements": 6328,
  "\u2581multiples": 6329,
  "\u2581acquis": 6330,
  "\u2581filed": 6331,
  "\u2581\u00e9labor\u00e9": 6332,
  "\u2581Senate": 6333,
  "EP": 6334,
  "\u2581park": 6335,
  "\u2581\u00e9tudier": 6336,
  "\u258117.": 6337,
  "ific": 6338,
  "\u2581voice": 6339,
  "\u2581Ph": 6340,
  "\u2581remboursement": 6341,
  "expression": 6342,
  "av": 6343,
  "\u2581Fa": 6344,
  "GR": 6345,
  "\u2581Crime": 6346,
  "nom": 6347,
  "\u2581Entre": 6348,
  "\u2581fortement": 6349,
  "\u2581carri\u00e8re": 6350,
  "ney": 6351,
  "\u2581exactly": 6352,
  "\u2581rurales": 6353,
  "\u2581ACP": 6354,
  "TO": 6355,
  "\u2581financer": 6356,
  "4%": 6357,
  "obligation": 6358,
  "IV": 6359,
  "\u2581moved": 6360,
  "\u2581(5": 6361,
  "rant": 6362,
  "\u2581passed": 6363,
  "\u2581Mill\u00e9naire": 6364,
  "\u2581comporte": 6365,
  "\u2581el": 6366,
  "\u2581collected": 6367,
  "\u2581acting": 6368,
  "\u2581Click": 6369,
  "\u2581Poland": 6370,
  "\u2581fr\u00e8re": 6371,
  "\u2581disabled": 6372,
  "\u2581placement": 6373,
  "UL": 6374,
  "\u2581unto": 6375,
  "\u2581ii": 6376,
  "bert": 6377,
  "\u2581devenu": 6378,
  "\u2581background": 6379,
  "\u25812013.": 6380,
  "\u2581laisse": 6381,
  "\u2581picture": 6382,
  "\u2581moving": 6383,
  "\u2581weather": 6384,
  "\u2581Br\u00e9sil": 6385,
  "\u258178": 6386,
  "\u2581ferme": 6387,
  "\u2581Ja": 6388,
  "IG": 6389,
  "\u2581mutual": 6390,
  "\u2581comit\u00e9s": 6391,
  "usage": 6392,
  "accent": 6393,
  "\u2581employed": 6394,
  "\u2581n\u00e9gociation": 6395,
  "\u2581humanitaires": 6396,
  "\u2581eat": 6397,
  "organisme": 6398,
  "\u2581peaceful": 6399,
  "lig": 6400,
  "\u2581Fer": 6401,
  "1)": 6402,
  "\u2581libert\u00e9s": 6403,
  "\u2581gains": 6404,
  "\u2581accord\u00e9e": 6405,
  "\u2581interpretation": 6406,
  "Mo": 6407,
  "\u2581croire": 6408,
  "\u2581garden": 6409,
  "\u2581spread": 6410,
  "tiques": 6411,
  "\u2581independence": 6412,
  "\u2581Ltd": 6413,
  "\u2581Publications": 6414,
  "\u2581pertinents": 6415,
  "\u2581\u00e9tablies": 6416,
  "\u2581ordinaire": 6417,
  "\u2581m\u00e9dicaux": 6418,
  "auto": 6419,
  "\u2581mettant": 6420,
  "\u2581pr\u00e9judice": 6421,
  "\u2581profession": 6422,
  "\u2581buildings": 6423,
  "\u2581ventes": 6424,
  "\u2581prennent": 6425,
  "4.": 6426,
  "\u2581tried": 6427,
  "\u2581Ram": 6428,
  "ama": 6429,
  "\u2581questionnaire": 6430,
  "SO": 6431,
  "\u2581rail": 6432,
  "\u2581critique": 6433,
  "\u2581(\"": 6434,
  "\u2581pr\u00e9sentent": 6435,
  "tis": 6436,
  "\u2581engaged": 6437,
  "\u2581anciens": 6438,
  "St": 6439,
  "\u2581municipal": 6440,
  "\u2581substantive": 6441,
  "\u2581configuration": 6442,
  "\u2581error": 6443,
  "\u25812.1": 6444,
  "\u2581perform": 6445,
  "\u2581men\u00e9e": 6446,
  "\u2581fixe": 6447,
  "\u2581accrue": 6448,
  "\u2581acier": 6449,
  "\u2581namely": 6450,
  "\u2581poursuite": 6451,
  "\u2581somme": 6452,
  "\u2581sommet": 6453,
  "\u2581existants": 6454,
  "\u00e9ro": 6455,
  "\u2581t\u00e9moins": 6456,
  "\u2581Mary": 6457,
  "\u2581examples": 6458,
  "\u25811992,": 6459,
  "\u2581raciale": 6460,
  "ox": 6461,
  "3)": 6462,
  "\u2581Fi": 6463,
  "mann": 6464,
  "RS": 6465,
  "\u2581formule": 6466,
  "\u2581command": 6467,
  "\u2581communs": 6468,
  "\u2581master": 6469,
  "4)": 6470,
  "\u2581plage": 6471,
  "\u2581exemples": 6472,
  "\u2581\u266a": 6473,
  "\u2581heat": 6474,
  "\u2581cadres": 6475,
  "\u2581fresh": 6476,
  "cro": 6477,
  "\u2581intra": 6478,
  "\u2581inc": 6479,
  "\u2581origine": 6480,
  "\u2581Relations": 6481,
  "\u2581directe": 6482,
  "\u2581Market": 6483,
  "\u2581pr\u00e9occupation": 6484,
  "\u2581Num\u00e9ro": 6485,
  "AF": 6486,
  "\u2581verre": 6487,
  "\u2581secondaire": 6488,
  "\u2581extend": 6489,
  "cle": 6490,
  "\u2581fear": 6491,
  "\u2581Pa": 6492,
  "\u2581president": 6493,
  "\u2581hospital": 6494,
  "\u2581bill": 6495,
  "\u2581mon\u00e9taire": 6496,
  "\u2581navigateur": 6497,
  "\u2581teachers": 6498,
  "alimentation": 6499,
  "\u2581Bou": 6500,
  "ware": 6501,
  "\u2581erreur": 6502,
  "mit": 6503,
  "\u2581quarter": 6504,
  "\u2581ressort": 6505,
  "\u2581gratuitement": 6506,
  "\u2581b\u00e9n\u00e9ficiaires": 6507,
  "\u2581theme": 6508,
  "\u2581Michael": 6509,
  "\u2581explained": 6510,
  "\u2581envoy\u00e9": 6511,
  "\u2581Internal": 6512,
  "\u25812:": 6513,
  "\u2581historical": 6514,
  "DS": 6515,
  "\u2581compl\u00e8tement": 6516,
  "\u2581observation": 6517,
  "\u2581rich": 6518,
  "\u2581auxquelles": 6519,
  "\u2581transportation": 6520,
  "\u2581Tuesday": 6521,
  "\u2581juges": 6522,
  "\u2581remove": 6523,
  "\u2581effectivement": 6524,
  "\u2581collect": 6525,
  "\u2581appropri\u00e9e": 6526,
  "\u2581arm\u00e9s": 6527,
  "\u2581showed": 6528,
  "\u2581pr\u00e9c\u00e9dente": 6529,
  "\u2581star": 6530,
  "\u2581NGOs": 6531,
  "\u2581extraordinaire": 6532,
  "well": 6533,
  "\u2581coverage": 6534,
  "\u2581modifi\u00e9e": 6535,
  "\u2581profile": 6536,
  "ura": 6537,
  "\u2581\u00e2g\u00e9es": 6538,
  "\u2581kitchen": 6539,
  "\u2581changing": 6540,
  "\u2581telephone": 6541,
  "association": 6542,
  "\u2581learned": 6543,
  "ala": 6544,
  "\u2581connected": 6545,
  "\u2581calme": 6546,
  "\u2581continuent": 6547,
  "\u2581student": 6548,
  "\u2581jou\u00e9": 6549,
  "\u2581famous": 6550,
  "\u2581older": 6551,
  "\u2581occurred": 6552,
  "cm": 6553,
  "\u2581Ra": 6554,
  "\u2581devoir": 6555,
  "\u2581faisait": 6556,
  "\u2581orders": 6557,
  "\u2581Defence": 6558,
  "\u2581appropri\u00e9": 6559,
  "\u2581culturelle": 6560,
  "\u2581scolaire": 6561,
  "\u2581r\u00e9ussi": 6562,
  "\u2581manifestations": 6563,
  "\u2581Help": 6564,
  "\u00e7": 6565,
  "\u2581z": 6566,
  "\u2581indication": 6567,
  "\u2581resulted": 6568,
  "\u2581exact": 6569,
  "\u2581manufacturer": 6570,
  "\u2581g\u00e9ographique": 6571,
  "\u2581returned": 6572,
  "\u2581Ville": 6573,
  "\u2581agit": 6574,
  "\u2581vuln\u00e9rables": 6575,
  "\u2581Before": 6576,
  "\u2581gone": 6577,
  "\u2581bout": 6578,
  "\u2581happen": 6579,
  "\u2581infractions": 6580,
  "\u2581Head": 6581,
  "tim": 6582,
  "issement": 6583,
  "\u2581touche": 6584,
  "\u2581touch": 6585,
  "\u2581d\u00e9ploy\u00e9s": 6586,
  "ame": 6587,
  "\u2581recrutement": 6588,
  "\u2581Fondation": 6589,
  "isant": 6590,
  "\u2581Population": 6591,
  "\u2581Min": 6592,
  "\u2581avenir": 6593,
  "\u2581representation": 6594,
  "\u2581certainly": 6595,
  "\u2581glass": 6596,
  "\u2581advanced": 6597,
  "\u2581Finland": 6598,
  "\u2581stade": 6599,
  "\u2581Jeux": 6600,
  "\u2581Space": 6601,
  "ats": 6602,
  "\u2581path": 6603,
  "\u2581forced": 6604,
  "\u2581exercer": 6605,
  "\u2581Cal": 6606,
  "\u2581ordinateur": 6607,
  "king": 6608,
  "\u2581annonce": 6609,
  "\u2581completion": 6610,
  "\u2581recommend": 6611,
  "\u2581moral": 6612,
  "\u2581Rio": 6613,
  "\u2581Fort": 6614,
  "\u2581ra": 6615,
  "-18": 6616,
  "\u2581Joseph": 6617,
  "\u2581r\u00e9sistance": 6618,
  "\u2581Hotels": 6619,
  "su": 6620,
  "\u2581nomm\u00e9": 6621,
  "ois": 6622,
  "\u2581flexible": 6623,
  "doc": 6624,
  ".15": 6625,
  "\u2581eye": 6626,
  "\u2581charg\u00e9s": 6627,
  "\u2581veulent": 6628,
  "\u2581d\u00e9clare": 6629,
  "wood": 6630,
  "\u2581urgence": 6631,
  "\u2581consacr\u00e9": 6632,
  "\u2581voulais": 6633,
  "\u2581indeed": 6634,
  "ified": 6635,
  "\u2581brand": 6636,
  "\u2581limiter": 6637,
  "8/": 6638,
  "ius": 6639,
  "\u2581pl\u00e9ni\u00e8re": 6640,
  "\u258191": 6641,
  "\u2581seeking": 6642,
  "\u2581Maintenant": 6643,
  "\u2581bo": 6644,
  "\u2581remplacer": 6645,
  "\u2581soi": 6646,
  "\u2581valid": 6647,
  "\u2581husband": 6648,
  "\u2581vin": 6649,
  "\u2581Yukon": 6650,
  "\u2581venu": 6651,
  "lique": 6652,
  "\u2581temporaire": 6653,
  "\u258174": 6654,
  "ably": 6655,
  "\u2581plenary": 6656,
  "\u2581chiffre": 6657,
  "anda": 6658,
  "back": 6659,
  "\u2581lundi": 6660,
  "\u2581fill": 6661,
  "\u25811.1": 6662,
  "vel": 6663,
  "\u2581civilian": 6664,
  "\u2581vendre": 6665,
  "\u2581visites": 6666,
  "cha": 6667,
  "\u2581activement": 6668,
  "\u2581individus": 6669,
  "\u2581rare": 6670,
  "\u2581culturel": 6671,
  "\u2581examined": 6672,
  "\u2581rec": 6673,
  "\u2581metal": 6674,
  "dom": 6675,
  "\u2581lettres": 6676,
  "\u2581Louis": 6677,
  "\u2581concepts": 6678,
  "ever": 6679,
  "\u2581Staff": 6680,
  "lor": 6681,
  "\u2581chosen": 6682,
  "\u2581beach": 6683,
  "\u2581wasn": 6684,
  "\u2581effectu\u00e9es": 6685,
  "\u2581MP": 6686,
  "\u2581DG": 6687,
  "hal": 6688,
  "onne": 6689,
  "\u2581li\u00e9e": 6690,
  "\u2581colour": 6691,
  "\u2581votes": 6692,
  "\u2581Cha": 6693,
  "\u2581wall": 6694,
  "\u2581servi": 6695,
  "Britannique": 6696,
  "\u2581Czech": 6697,
  "lar": 6698,
  "\u2581explain": 6699,
  "\u2581tourism": 6700,
  "\u2581dommages": 6701,
  "\u2581actuelles": 6702,
  "\u2581Call": 6703,
  "\u2581recognize": 6704,
  ".30": 6705,
  "\u2581motor": 6706,
  "\u2581\u00e9troite": 6707,
  "\u2581Liste": 6708,
  "uri": 6709,
  "\u2581commentaire": 6710,
  "\u2581Chapitre": 6711,
  "\u2581constituer": 6712,
  "\u2581Parce": 6713,
  "\u2581locations": 6714,
  "\u2581entrer": 6715,
  "\u2581Kenya": 6716,
  "\u2581quantity": 6717,
  "\u2581middle": 6718,
  "\u2581Youth": 6719,
  "\u2581Jan": 6720,
  "ising": 6721,
  "\u2581mono": 6722,
  "\u00eele": 6723,
  "\u2581devaient": 6724,
  "6%": 6725,
  "\u2581assessed": 6726,
  "\u2581sert": 6727,
  "\u2581GDP": 6728,
  "\u2581enhanced": 6729,
  "phy": 6730,
  "\u2581corresponding": 6731,
  "mus": 6732,
  "\u2581experienced": 6733,
  "\u2581minority": 6734,
  "\u2581intitul\u00e9e": 6735,
  "\u2581acheter": 6736,
  "\u2581existantes": 6737,
  "\u2581delay": 6738,
  "\u2581couvrir": 6739,
  "\u2581index": 6740,
  "\u2581nationalit\u00e9": 6741,
  "\u2581cell": 6742,
  "\u2581Pologne": 6743,
  "\u2581Che": 6744,
  "\u2581remplacement": 6745,
  "\u2581mouvements": 6746,
  "\u2581sun": 6747,
  "LA": 6748,
  "\u2581die": 6749,
  "\u2581commissaire": 6750,
  "\u2581conferences": 6751,
  "\u2581criminalit\u00e9": 6752,
  "\u2581fix\u00e9": 6753,
  "\u2581appartenant": 6754,
  "ious": 6755,
  "table": 6756,
  "\u2581Leur": 6757,
  "\u2581cellules": 6758,
  "\u2581supplies": 6759,
  "\u2581Ge": 6760,
  "\u2581gold": 6761,
  "\u2581administratif": 6762,
  "\u2581ports": 6763,
  "\u2581taxe": 6764,
  "\u2581Communaut\u00e9s": 6765,
  "\u2581Collection": 6766,
  "\u2581Michel": 6767,
  "\u2581raisonnable": 6768,
  "\u2581blue": 6769,
  "vir": 6770,
  "\u2581incidents": 6771,
  "\u2581nine": 6772,
  "honorable": 6773,
  "\u2581Bre": 6774,
  "\u2581researchers": 6775,
  "\u2581Retour": 6776,
  "\u2581Swiss": 6777,
  "\u2581Eastern": 6778,
  "\u2581successfully": 6779,
  "\u2581accounting": 6780,
  "orientation": 6781,
  "cap": 6782,
  "\u25811983": 6783,
  "\u2581heavy": 6784,
  "\u2581th\u00e8mes": 6785,
  "\u2581becoming": 6786,
  "\u2581partis": 6787,
  "\u2581preliminary": 6788,
  "\u2581perdre": 6789,
  "\u2581pe": 6790,
  "\u2581Auto": 6791,
  "\u2581inf\u00e9rieur": 6792,
  "\u2581cold": 6793,
  "entretien": 6794,
  "rai": 6795,
  "\u2581110": 6796,
  "CT": 6797,
  "\u2581op\u00e9ration": 6798,
  "\u2581accorder": 6799,
  "\u2581tend": 6800,
  "Co": 6801,
  "avec": 6802,
  "\u2581sought": 6803,
  "\u2581dynamique": 6804,
  "ailleurs": 6805,
  "\u2581accountability": 6806,
  "200": 6807,
  "Association": 6808,
  "\u2581Image": 6809,
  "\u2581declared": 6810,
  "\u2581longueur": 6811,
  "\u2581su": 6812,
  "\u2581reconna\u00eetre": 6813,
  "Accord": 6814,
  "\u2581gratuite": 6815,
  "zo": 6816,
  "\u2581exports": 6817,
  "\u2581conflicts": 6818,
  "\u2581Every": 6819,
  "\u2581Aucune": 6820,
  "\u2581Prince": 6821,
  "\u2581`": 6822,
  "\u00f6": 6823,
  "\u258109": 6824,
  "PP": 6825,
  "Ex": 6826,
  "\u2581clause": 6827,
  "\u2581investigations": 6828,
  "bus": 6829,
  "\u2581\u00e9tats": 6830,
  "FA": 6831,
  "\u2581continu": 6832,
  "\u2581assigned": 6833,
  "\u258179": 6834,
  "\u2581Hall": 6835,
  "\u2581speaking": 6836,
  "\u2581emphasis": 6837,
  "\u2581favorable": 6838,
  "\u2581terrorist": 6839,
  "\u2581teams": 6840,
  "\u2581OK": 6841,
  "\u2581accept\u00e9": 6842,
  "\u2581marriage": 6843,
  "\u2581m\u00e9moire": 6844,
  "\u2581Nation": 6845,
  "\u2581decline": 6846,
  "\u2581leaving": 6847,
  "cor": 6848,
  "\u2581expenditures": 6849,
  "\u2581arriv\u00e9": 6850,
  "\u2581evening": 6851,
  "FI": 6852,
  "\u2581timely": 6853,
  "\u2581king": 6854,
  "\u2581reconna\u00eet": 6855,
  "\u2581stressed": 6856,
  "\u2581fond\u00e9": 6857,
  "\u2581vary": 6858,
  "\u2581Leone": 6859,
  "\u2581automatically": 6860,
  "\u2581phrase": 6861,
  "\u2581covering": 6862,
  "FC": 6863,
  "\u2581Third": 6864,
  "ule": 6865,
  "\u2581Roman": 6866,
  "tens": 6867,
  "\u2581Professional": 6868,
  "\u2581attitude": 6869,
  "\u2581failed": 6870,
  "\u2581write": 6871,
  "\u2581controlled": 6872,
  "\u2581soixante": 6873,
  "\u2581offres": 6874,
  "\u2581domicile": 6875,
  "\u2581seuls": 6876,
  "\u2581pot": 6877,
  "\u2581interview": 6878,
  "\u2581rubrique": 6879,
  "lit": 6880,
  "\u2581segment": 6881,
  "\u2581VII": 6882,
  "\u2581h\u00f4tel": 6883,
  "\u2581Summary": 6884,
  "lant": 6885,
  "\u2581consists": 6886,
  "\u2581interesting": 6887,
  "gue": 6888,
  "\u2581Ru": 6889,
  "\u2581Premi\u00e8res": 6890,
  "\u2581port\u00e9": 6891,
  "\u2581church": 6892,
  "\u2581gagner": 6893,
  "\u2581solid": 6894,
  "\u2581relever": 6895,
  "\u2581reforms": 6896,
  "\u2581copie": 6897,
  "\u2581fl": 6898,
  "\u2581plate": 6899,
  "\u2581informer": 6900,
  "\u2581accession": 6901,
  "\u2581Blog": 6902,
  "enne": 6903,
  "\u2581allons": 6904,
  "\u2581Sunday": 6905,
  "km": 6906,
  "\u2581fronti\u00e8re": 6907,
  "\u2581combien": 6908,
  "\u2581managers": 6909,
  "\u2581culturelles": 6910,
  "\u2581stockage": 6911,
  "\u2581piscine": 6912,
  "\u2581souligner": 6913,
  "\u2581Documents": 6914,
  "\u2581voit": 6915,
  "\u2581contributed": 6916,
  "\u2581Ed": 6917,
  "\u2581Wa": 6918,
  "\u2581Branch": 6919,
  "\u2581performances": 6920,
  "\u2581exceed": 6921,
  "\u2581professionals": 6922,
  "\u2581d\u00e9c": 6923,
  "\u258107": 6924,
  "\u2581convenu": 6925,
  "IST": 6926,
  "\u2581catalogue": 6927,
  "\u2581healthy": 6928,
  "\u2581Ses": 6929,
  "\u2581Ber": 6930,
  "\u2581ins": 6931,
  "\u2581sir": 6932,
  "\u2581r\u00e9pondu": 6933,
  "\u2581crises": 6934,
  "ola": 6935,
  "\u2581victim": 6936,
  "RES": 6937,
  ":30": 6938,
  "examiner": 6939,
  "\u2581books": 6940,
  "\u2581n\u00e9": 6941,
  "\u2581secours": 6942,
  "xi": 6943,
  "\u2581budgetary": 6944,
  "\u2581fondamentales": 6945,
  "imp": 6946,
  "\u2581Coordination": 6947,
  "\u2581priv\u00e9es": 6948,
  "\u2581Road": 6949,
  "\u2581Local": 6950,
  "\u2581col": 6951,
  "\u2581poser": 6952,
  "\u2581t\u00e9l\u00e9communicat": 6953,
  "\u25813)": 6954,
  "ges": 6955,
  "\u2581fournies": 6956,
  "\u2581ahead": 6957,
  "\u2581effectu\u00e9e": 6958,
  "vie": 6959,
  "\u2581dispute": 6960,
  "\u2581breakfast": 6961,
  "work": 6962,
  "\u2581Norway": 6963,
  "\u2581Etat": 6964,
  "\u2581Fin": 6965,
  "pp": 6966,
  "lage": 6967,
  "\u2581helping": 6968,
  "\u2581satisfaire": 6969,
  "nal": 6970,
  "\u2581helped": 6971,
  "MENT": 6972,
  "\u2581islamique": 6973,
  "\u2581Sir": 6974,
  "\u2581courriel": 6975,
  "\u2581workshops": 6976,
  "\u25811984": 6977,
  "TP": 6978,
  "\u2581Santa": 6979,
  ".11": 6980,
  "ides": 6981,
  "An": 6982,
  "\u2581derri\u00e8re": 6983,
  "\u2581latine": 6984,
  "\u2581Commissaire": 6985,
  "\u2581chair": 6986,
  "\u258105": 6987,
  "\u2581regularly": 6988,
  "enfants": 6989,
  "arr\u00eat": 6990,
  "entreprises": 6991,
  "\u2581Bio": 6992,
  "\u2581trend": 6993,
  "\u2581Building": 6994,
  "6/": 6995,
  "uck": 6996,
  "\u2581compl\u00e9mentaires": 6997,
  "exception": 6998,
  "\u2581Cara\u00efbes": 6999,
  "\u2581industrielle": 7000,
  "\u2581voyages": 7001,
  "\u2581Small": 7002,
  "\u2581CRTC": 7003,
  "\u2581bons": 7004,
  "6,": 7005,
  "\u2581consid\u00e9rer": 7006,
  "\u2581pen": 7007,
  "\u2581Persons": 7008,
  "wide": 7009,
  "\u2581travaillent": 7010,
  "is\u00e9": 7011,
  "\u2581r\u00e9percussions": 7012,
  "\u2581worth": 7013,
  "consid\u00e9rablement": 7014,
  "\u2581(18": 7015,
  "aries": 7016,
  "\u00e9n\u00e9": 7017,
  "\u258119.": 7018,
  "top": 7019,
  "\u2581offrent": 7020,
  "\u258121,": 7021,
  "\u2581Ci": 7022,
  "\u2581aper\u00e7u": 7023,
  "\u2581Irlande": 7024,
  "\u2581initiale": 7025,
  "\u2581propos\u00e9es": 7026,
  "\u2581disposer": 7027,
  "\u2581discipline": 7028,
  "\u2581Both": 7029,
  "atrice": 7030,
  "\u2581attached": 7031,
  "ich": 7032,
  "\u2581formats": 7033,
  "\u2581futur": 7034,
  "\u2581pieds": 7035,
  "ser": 7036,
  "\u2581worldwide": 7037,
  "\u2581mar": 7038,
  "\u2581Email": 7039,
  "\u00e9quipement": 7040,
  "\u2581Contracting": 7041,
  "sk": 7042,
  "\u2581Case": 7043,
  "\u2581judge": 7044,
  "HA": 7045,
  "\u2581tuer": 7046,
  "\u2581r\u00e9cente": 7047,
  "\u2581JavaScript": 7048,
  "\u2581effectu\u00e9s": 7049,
  "\u258182": 7050,
  "\u2581square": 7051,
  "\u2581offence": 7052,
  "\u2581entrepris": 7053,
  "\u2581primaire": 7054,
  "\u2581Prevention": 7055,
  "\u25812014.": 7056,
  "\u2581wind": 7057,
  "law": 7058,
  "\u25812.2": 7059,
  "\u25811998.": 7060,
  "\u2581signe": 7061,
  "\u2581logiciels": 7062,
  "\u2581heritage": 7063,
  "Commission": 7064,
  "\u2581vessels": 7065,
  "\u2581integrity": 7066,
  "\u2581operators": 7067,
  "oma": 7068,
  "\u2581achievement": 7069,
  "\u2581covers": 7070,
  "\u2581club": 7071,
  "rou": 7072,
  "\u2581behaviour": 7073,
  "TER": 7074,
  "UT": 7075,
  "\u2581qualified": 7076,
  "\u2581p\u00e9riodes": 7077,
  "\u2581Bosnie": 7078,
  "\u2581arriver": 7079,
  "\u2581automatiquement": 7080,
  "\u2581screen": 7081,
  "\u2581Ressources": 7082,
  "\u2581d\u00e9termin\u00e9": 7083,
  "ieux": 7084,
  "\u2581affairs": 7085,
  "ula": 7086,
  "field": 7087,
  "\u2581Online": 7088,
  "\u2581sp\u00e9cialistes": 7089,
  "\u2581Hi": 7090,
  "\u2581publicit\u00e9": 7091,
  "isse": 7092,
  "\u00e9poque": 7093,
  "\u2581Finlande": 7094,
  "\u2581Sudan": 7095,
  "\u2581doubt": 7096,
  "\u2581demain": 7097,
  "\u2581fonctionnaire": 7098,
  "\u258131,": 7099,
  "4/": 7100,
  "tr": 7101,
  "\u2581d\u00e9fini": 7102,
  "\u2581blog": 7103,
  "\u2581occasions": 7104,
  "\u2581scheduled": 7105,
  "ken": 7106,
  "tent": 7107,
  "\u2581massive": 7108,
  "ssant": 7109,
  "\u2581cat": 7110,
  "\u2581pictures": 7111,
  "\u2581ouvrir": 7112,
  "\u2581journal": 7113,
  "Article": 7114,
  "gie": 7115,
  "\u2581Daniel": 7116,
  "\u25811982": 7117,
  "del": 7118,
  "\u2581honour": 7119,
  "\u2581finding": 7120,
  "pan": 7121,
  "\u2581physiques": 7122,
  "ache": 7123,
  "\u2581habitat": 7124,
  "\u258183": 7125,
  "\u258181": 7126,
  "\u2581contr\u00f4ler": 7127,
  "cus": 7128,
  "\u2581reproduction": 7129,
  "ida": 7130,
  "ym": 7131,
  "\u2581discover": 7132,
  "\u2581Da": 7133,
  "\u2581outstanding": 7134,
  "\u2581Wien": 7135,
  "\u2581cl": 7136,
  "\u2581properties": 7137,
  "\u2581extensive": 7138,
  "\u2581Out": 7139,
  "\u2581demi": 7140,
  "\u2581PIB": 7141,
  "\u2581PAR": 7142,
  "-04": 7143,
  "\u2581looks": 7144,
  "rons": 7145,
  "\u2581James": 7146,
  "ford": 7147,
  "\u2581facing": 7148,
  "\u2581cong\u00e9": 7149,
  "SD": 7150,
  "FP": 7151,
  "\u2581participated": 7152,
  "antes": 7153,
  "\u2581vocational": 7154,
  "\u2581teneur": 7155,
  "iti": 7156,
  "\u2581propri\u00e9taire": 7157,
  "ore": 7158,
  "\u2581Annexe": 7159,
  "\u2581street": 7160,
  "\u2581terroristes": 7161,
  "\u2581Burundi": 7162,
  "appliquent": 7163,
  "\u2581Best": 7164,
  "\u2581Appendix": 7165,
  "\u2581Za": 7166,
  "\u2581bringing": 7167,
  "\u2581improvements": 7168,
  "\u2581exclusion": 7169,
  "\u2581judges": 7170,
  "\u2581trouble": 7171,
  "\u2581tiendra": 7172,
  "\u2581Area": 7173,
  "\u2581Denmark": 7174,
  "\u2581actif": 7175,
  "\u2581incidences": 7176,
  "\u2581int\u00e9ress\u00e9s": 7177,
  "\u2581assessments": 7178,
  "dou": 7179,
  "s\u00e9": 7180,
  "\u2581maisons": 7181,
  "\u2581Lire": 7182,
  "\u2581bateau": 7183,
  "\u2581Bal": 7184,
  "Un": 7185,
  "rac": 7186,
  "\u2581ml": 7187,
  "\u2581beau": 7188,
  "\u2581EX": 7189,
  "\u2581prescriptions": 7190,
  "\u25818,": 7191,
  "\u2581r\u00e9action": 7192,
  "\u2581calculated": 7193,
  "\u2581applying": 7194,
  "\u2581camps": 7195,
  "\u2581directeurs": 7196,
  "\u2581exprim\u00e9": 7197,
  "\u2581r\u00e9paration": 7198,
  "\u2581undertake": 7199,
  "ifs": 7200,
  "\u2581m\u00e9dicament": 7201,
  "\u258110%": 7202,
  "\u2581allocated": 7203,
  "\u2581Up": 7204,
  "\u25811990,": 7205,
  "\u2581Mise": 7206,
  "\u2581welcomes": 7207,
  "\u2581portent": 7208,
  "\u2581distributed": 7209,
  "tation": 7210,
  "\u2581bear": 7211,
  "\u2581foot": 7212,
  "\u2581Charles": 7213,
  "\u2581menaces": 7214,
  "\u2581D\u00e9cision": 7215,
  "\u2581identifier": 7216,
  "\u2581presents": 7217,
  "\u2581prie": 7218,
  "gal": 7219,
  "\u2581Reference": 7220,
  "Or": 7221,
  "\u2581Mediterranean": 7222,
  "om": 7223,
  "\u2581cher": 7224,
  "\u2581dry": 7225,
  "iel": 7226,
  "\u2581victime": 7227,
  "armes": 7228,
  "\u2581marked": 7229,
  "Rev": 7230,
  "\u2581enseignants": 7231,
  "\u2581700": 7232,
  "\u2581register": 7233,
  "2009": 7234,
  "\u2581Sport": 7235,
  "\u2581quelles": 7236,
  "position": 7237,
  "\u2581entity": 7238,
  "\u2581Cultural": 7239,
  "\u2581functioning": 7240,
  "\u2581launch": 7241,
  "\u2581fini": 7242,
  "but": 7243,
  "\u2581soleil": 7244,
  "\u2581conclure": 7245,
  "\u2581College": 7246,
  "\u2581cells": 7247,
  "As": 7248,
  "\u2581bas\u00e9": 7249,
  "\u2581vert": 7250,
  "7,": 7251,
  "\u2581repas": 7252,
  "\u2581Ya": 7253,
  "\u2581Map": 7254,
  "\u2581Barcelona": 7255,
  "\u2581vieux": 7256,
  "lam": 7257,
  "\u2581Language": 7258,
  "box": 7259,
  "\u2581Light": 7260,
  "\u2581rapid": 7261,
  "\u2581Philippines": 7262,
  "\u25811970": 7263,
  "OD": 7264,
  "\u2581allowing": 7265,
  "\u2581manufacturing": 7266,
  "\u2581restent": 7267,
  "\u2581Activities": 7268,
  "\u00e4": 7269,
  "\u2581Results": 7270,
  "\u2581mentale": 7271,
  "\u2581remise": 7272,
  "\u2581flat": 7273,
  "\u2581impose": 7274,
  "\u0153uvre": 7275,
  "\u2581input": 7276,
  "OM": 7277,
  "ect": 7278,
  "type": 7279,
  "\u2581abroad": 7280,
  "\u2581propos\u00e9e": 7281,
  "ker": 7282,
  "\u2581pr\u00e9sentes": 7283,
  "\u2581inclure": 7284,
  "\u2581burden": 7285,
  "\u2581p\u00e9trole": 7286,
  "\u2581pointed": 7287,
  "\u2581Sha": 7288,
  "\u2581industriels": 7289,
  "\u2581Voil\u00e0": 7290,
  "\u2581binding": 7291,
  "pens": 7292,
  "\u2581label": 7293,
  "\u2581appreciation": 7294,
  "\u2581envisager": 7295,
  "\u2581attacks": 7296,
  "\u25813.1": 7297,
  "On": 7298,
  "\u2581a\u00e9rien": 7299,
  "\u2581vit": 7300,
  "rig": 7301,
  "\u2581Pat": 7302,
  "\u2581rang": 7303,
  "\u2581essai": 7304,
  "\u2581emerging": 7305,
  "\u2581overview": 7306,
  "\u258121.": 7307,
  "\u2581agir": 7308,
  "\u2581\u00e9tranger": 7309,
  "\u2581$3": 7310,
  "France": 7311,
  "\u2581threats": 7312,
  "\u2581yes": 7313,
  "\u2581termin\u00e9": 7314,
  "\u2581Operations": 7315,
  "\u2581maybe": 7316,
  "\u2581Luc": 7317,
  "\u2581Bel": 7318,
  "\u25811.2": 7319,
  "\u2581salon": 7320,
  "\u2581players": 7321,
  "ouest": 7322,
  "\u2581Dan": 7323,
  "\u2581supprimer": 7324,
  "\u2581ateliers": 7325,
  "asp": 7326,
  "euses": 7327,
  "\u2581trimestre": 7328,
  "\u00e9lectricit\u00e9": 7329,
  "\u25812015.": 7330,
  "\u2581Mes": 7331,
  "rc": 7332,
  "\u2581actively": 7333,
  "\u2581obstacle": 7334,
  "\u2581ind\u00e9pendants": 7335,
  "\u2581valoir": 7336,
  "\u2581param\u00e8tres": 7337,
  "\u2581gouvernementaux": 7338,
  "\u2581Headquarters": 7339,
  "\u2581signs": 7340,
  "\u2581avanc\u00e9s": 7341,
  "approbation": 7342,
  "\u2581directed": 7343,
  "\u2581holiday": 7344,
  "\u2581explore": 7345,
  "\u2581electricity": 7346,
  "\u00c9ternel": 7347,
  "\u2581Privacy": 7348,
  "\u2581knows": 7349,
  "\u2581Directorate": 7350,
  "\u2581subi": 7351,
  "\u2581correctement": 7352,
  "\u2581orientations": 7353,
  "\u2581conserver": 7354,
  "\u2581strongly": 7355,
  "\u2581homepage": 7356,
  "\u2581anniversaire": 7357,
  "NE": 7358,
  "\u2581severe": 7359,
  "\u2581vivent": 7360,
  "\u2581nearly": 7361,
  "\u2581deemed": 7362,
  "\u2581Vienne": 7363,
  "spect": 7364,
  "\u2581mentionn\u00e9": 7365,
  "\u2581pretty": 7366,
  "\u2581comp\u00e9titivit\u00e9": 7367,
  "\u2581interm\u00e9diaire": 7368,
  "JO": 7369,
  "\u2581supr\u00eame": 7370,
  "\u2581inf\u00e9rieure": 7371,
  "\u2581registre": 7372,
  "\u2581removed": 7373,
  "\u2581unable": 7374,
  "\u2581Quality": 7375,
  "\u2581farm": 7376,
  "\u2581responses": 7377,
  "\u2581Menu": 7378,
  "\u2581radiodiffusion": 7379,
  "5)": 7380,
  "\u2581keeping": 7381,
  "\u2581dessus": 7382,
  "\u2581fee": 7383,
  "\u2581piece": 7384,
  "\u2581actuels": 7385,
  "\u258150%": 7386,
  "\u2581preuves": 7387,
  "\u2581treaties": 7388,
  "\u2581playing": 7389,
  "\u2581amend": 7390,
  "\u2581Despite": 7391,
  "\u2581perhaps": 7392,
  "\u2581d\u00e9taill\u00e9e": 7393,
  "\u2581heading": 7394,
  "\u2581seat": 7395,
  "\u2581Tr\u00e9sor": 7396,
  "\u2581Activit\u00e9s": 7397,
  "\u2581Amendement": 7398,
  "\u2581oral": 7399,
  "\u2581bathroom": 7400,
  "\u2581indications": 7401,
  "\u2581farmers": 7402,
  "\u25812015,": 7403,
  "\u2581Danemark": 7404,
  "\u2581milk": 7405,
  "\u2581Mas": 7406,
  "\u2581Additional": 7407,
  "\u2581decrease": 7408,
  "\u2581pr\u00e9ciser": 7409,
  "\u2581CF": 7410,
  "\u2581offences": 7411,
  "\u2581Ser": 7412,
  "ral": 7413,
  "\u2581concern\u00e9": 7414,
  "\u2581intellectual": 7415,
  "\u2581r\u00e9sultant": 7416,
  "tar": 7417,
  "\u2581cal": 7418,
  "\u2581expect": 7419,
  "\u2581pourrez": 7420,
  "\u2581catastrophes": 7421,
  "vit": 7422,
  "\u2581preparing": 7423,
  "\u2581Informations": 7424,
  "\u2581acid": 7425,
  "\u2581feature": 7426,
  "\u2581revenue": 7427,
  "\u2581transferred": 7428,
  "\u2581bain": 7429,
  "\u2581infraction": 7430,
  "\u2581biologique": 7431,
  "\u2581Arts": 7432,
  "\u2581powerful": 7433,
  "uch": 7434,
  "\u2581depending": 7435,
  "\u2581Audit": 7436,
  "ight": 7437,
  "\u2581Norv\u00e8ge": 7438,
  "\u2581Log": 7439,
  "\u2581patent": 7440,
  "\u2581currency": 7441,
  "\u2581totalement": 7442,
  "\u2581Three": 7443,
  "\u2581atteinte": 7444,
  "\u2581schedule": 7445,
  "\u2581turned": 7446,
  "\u2581facultatif": 7447,
  "\u2581director": 7448,
  "\u2581Char": 7449,
  "\u2581maintaining": 7450,
  "\u2581impression": 7451,
  "\u2581suffit": 7452,
  "\u2581tch\u00e8que": 7453,
  "\u2581neither": 7454,
  "\u2581prenant": 7455,
  "\u2581funded": 7456,
  "3%": 7457,
  "\u2581mobilit\u00e9": 7458,
  "\u2581Notes": 7459,
  "DI": 7460,
  "fect": 7461,
  "\u2581drogue": 7462,
  "\u2581arm\u00e9es": 7463,
  "\u2581Games": 7464,
  "\u2581dangereux": 7465,
  "\u2581gross": 7466,
  "\u2581li\u00e9": 7467,
  "\u2581fallait": 7468,
  "\u2581nourriture": 7469,
  "nce": 7470,
  "\u2581arguments": 7471,
  "2007": 7472,
  "\u2581\u00e9toiles": 7473,
  "\u2581jugement": 7474,
  "\u2581Nu": 7475,
  "rus": 7476,
  "\u2581prescribed": 7477,
  "\u2581Version": 7478,
  "\u2581motif": 7479,
  "\u2581plantes": 7480,
  "\u2581Base": 7481,
  "\u2581faute": 7482,
  "\u2581consid\u00e9r\u00e9s": 7483,
  "\u2581ancien": 7484,
  "\u2581trouverez": 7485,
  "\u00e9g": 7486,
  "Nous": 7487,
  "iii": 7488,
  "\u2581Ba": 7489,
  "\u2581autorisation": 7490,
  "vironnementales": 7491,
  "info": 7492,
  "\u2581limit\u00e9": 7493,
  "ok": 7494,
  "GA": 7495,
  "\u2581involve": 7496,
  "\u2581apprendre": 7497,
  "\u2581associ\u00e9": 7498,
  "\u2581confirmation": 7499,
  "\u2581S\u00e9nat": 7500,
  "\u2581donnent": 7501,
  "\u2581organiser": 7502,
  "\u2581Four": 7503,
  "\u2581Multi": 7504,
  "\u2581soil": 7505,
  "\u2581Status": 7506,
  "ax": 7507,
  "\u2581d\u00e9coulant": 7508,
  "\u2581university": 7509,
  "\u2581Certaines": 7510,
  "\u2581disposal": 7511,
  "cing": 7512,
  "cur": 7513,
  "\u2581hit": 7514,
  "\u2581(5)": 7515,
  "lot": 7516,
  "\u2581Greek": 7517,
  "\u2581considering": 7518,
  "\u2581wishes": 7519,
  "\u2581Gestion": 7520,
  "\u2581pr\u00e9sents": 7521,
  "\u2581suggest": 7522,
  "\u25811.3": 7523,
  "\u2581ind\u00e9pendante": 7524,
  "OT": 7525,
  "\u2581quantit\u00e9s": 7526,
  "\u2581r\u00e9sum\u00e9": 7527,
  "\u2581display": 7528,
  "ind": 7529,
  "lay": 7530,
  "\u2581excessive": 7531,
  "\u2581th": 7532,
  "\u2581vis\u00e9": 7533,
  "\u2581variable": 7534,
  "\u2581targeted": 7535,
  "\u2581Ku": 7536,
  "\u2581loans": 7537,
  "\u2581Malgr\u00e9": 7538,
  "\u2581d\u00e9marche": 7539,
  "\u2581chang\u00e9": 7540,
  "\u2581arr\u00eat\u00e9": 7541,
  "2013": 7542,
  "7%": 7543,
  "\u2581formul\u00e9es": 7544,
  "\u2581Bu": 7545,
  "aimerais": 7546,
  "9%": 7547,
  "op\u00e9ration": 7548,
  "\u2581Islamic": 7549,
  "\u2581liability": 7550,
  "\u2581Paper": 7551,
  "\u2581fen\u00eatre": 7552,
  "\u2581pr\u00e9visions": 7553,
  "\u2581committees": 7554,
  "\u2581joined": 7555,
  "\u2581instruction": 7556,
  "\u2581Cross": 7557,
  "\u2581winter": 7558,
  "\u2581exactement": 7559,
  "pri": 7560,
  "\u2581sp\u00e9cialis\u00e9es": 7561,
  "\u2581measured": 7562,
  "\u2581standing": 7563,
  "cl": 7564,
  "\u2581Natural": 7565,
  "\u2581determining": 7566,
  "\u2581Bosnia": 7567,
  "\u2581f\u00eate": 7568,
  "ara": 7569,
  "\u2581Trust": 7570,
  "aurais": 7571,
  "\u2581Strategic": 7572,
  "\u2581enti\u00e8re": 7573,
  "dre": 7574,
  "\u2581laiss\u00e9": 7575,
  "/3": 7576,
  "\u2581Mot": 7577,
  "\u2581soldats": 7578,
  "\u2581rappeler": 7579,
  "\u2581130": 7580,
  "\u25811010": 7581,
  "\u2581partenaire": 7582,
  "\u2581Care": 7583,
  "\u2581witness": 7584,
  "pot": 7585,
  "\u2581capitaux": 7586,
  "\u2581Capital": 7587,
  "\u2581Private": 7588,
  "infrastructure": 7589,
  "itz": 7590,
  "\u2581\u00e9cole": 7591,
  "\u2581indicates": 7592,
  "\u2581coll\u00e8gues": 7593,
  "dic": 7594,
  "\u2581Agence": 7595,
  "\u25812006-2007": 7596,
  "alit\u00e9": 7597,
  "\u25811000": 7598,
  "\u2581am\u00e9ricain": 7599,
  "LO": 7600,
  "lie": 7601,
  "\u2581feet": 7602,
  "\u2581\u00e9vidence": 7603,
  "\u2581win": 7604,
  "EMENT": 7605,
  "\u2581organe": 7606,
  "\u2581letters": 7607,
  "\u2581sp": 7608,
  "\u2581communiqu\u00e9": 7609,
  "\u2581tion": 7610,
  "\u2581Washington": 7611,
  "\u2581payable": 7612,
  "\u2581houses": 7613,
  "\u2581Cat": 7614,
  "\u2581Camping": 7615,
  "\u2581owner": 7616,
  "\u2581immigration": 7617,
  "\u2581dollar": 7618,
  "\u2581facts": 7619,
  "aria": 7620,
  "ire": 7621,
  "\u2581traditions": 7622,
  "ome": 7623,
  "\u2581adverse": 7624,
  "\u2581engag\u00e9": 7625,
  "Isra\u00ebl": 7626,
  "\u2581lancement": 7627,
  "\u2581constate": 7628,
  "\u2581volontaires": 7629,
  "cast": 7630,
  "\u2581arri\u00e8re": 7631,
  "\u2581calling": 7632,
  "\u2581appris": 7633,
  "\u2581diagnostic": 7634,
  "\u2581instamment": 7635,
  "\u2581investissement": 7636,
  "\u00e9n": 7637,
  "\u2581travaill\u00e9": 7638,
  "ory": 7639,
  "uf": 7640,
  "\u2581waters": 7641,
  "low": 7642,
  "\u2581widely": 7643,
  "\u2581hotels": 7644,
  "\u2581consentement": 7645,
  "0.00": 7646,
  "aff": 7647,
  "\u2581b\u00e2timents": 7648,
  "\u2581carbone": 7649,
  "\u2581SMEs": 7650,
  "ef": 7651,
  "mir": 7652,
  "\u2581drink": 7653,
  "\u2581governing": 7654,
  "row": 7655,
  "\u2581Micro": 7656,
  "\u2581pr\u00e9cis\u00e9ment": 7657,
  "\u2581initiated": 7658,
  "\u2581cru": 7659,
  "ost": 7660,
  "\u2581Details": 7661,
  "ric": 7662,
  "\u2581privacy": 7663,
  "\u2581sentiment": 7664,
  "\u00f4": 7665,
  "\u2581Supreme": 7666,
  "\u2581accompanied": 7667,
  "\u2581Holy": 7668,
  "\u2581formed": 7669,
  "\u2581award": 7670,
  "\u2581racial": 7671,
  "\u2581Inde": 7672,
  "\u2581suffering": 7673,
  "\u2581acc\u00e9der": 7674,
  "\u2581adults": 7675,
  "lation": 7676,
  "\u2581listen": 7677,
  "\u2581immigrants": 7678,
  "\u2581\u00eeles": 7679,
  "\u2581shape": 7680,
  "\u2581retrait": 7681,
  "\u2581fr\u00e9quence": 7682,
  "\u2581AU": 7683,
  "ls": 7684,
  "\u2581salaire": 7685,
  "\u2581Rose": 7686,
  "ote": 7687,
  "esp\u00e8re": 7688,
  "\u2581Front": 7689,
  "agent": 7690,
  "\u2581forth": 7691,
  "eaux": 7692,
  "\u2581R\u00e9sultats": 7693,
  "\u2581essentielles": 7694,
  "\u2581pure": 7695,
  "\u2581Guidelines": 7696,
  "\u2581contrary": 7697,
  "\u2581servant": 7698,
  "\u2581technologique": 7699,
  "\u2581missing": 7700,
  "\u2581sugar": 7701,
  "\u2581Timor": 7702,
  "\u2581rencontrer": 7703,
  "\u2581Customs": 7704,
  "\u2581\u00c9tant": 7705,
  "\u2581portes": 7706,
  "light": 7707,
  "\u2581shares": 7708,
  "\u2581Examen": 7709,
  "\u2581provenance": 7710,
  "\u2581climatique": 7711,
  "\u2581Rica": 7712,
  "\u2581poissons": 7713,
  "\u2581employ\u00e9": 7714,
  "\u2581nutrition": 7715,
  "\u2581confirm\u00e9": 7716,
  "b\u00e9": 7717,
  "\u2581river": 7718,
  "\u2581comp\u00e9tente": 7719,
  "\u2581f\u00e9d\u00e9raux": 7720,
  "\u2581d\u00e9partement": 7721,
  "its": 7722,
  "\u2581Thanks": 7723,
  "\u2581im": 7724,
  "\u2581Holiday": 7725,
  "\u2581entendre": 7726,
  "\u2581coordinated": 7727,
  "\u2581modified": 7728,
  "\u2581offerts": 7729,
  "\u2581Info": 7730,
  "bu": 7731,
  "\u2581feed": 7732,
  "\u2581Gas": 7733,
  "\u2581montrent": 7734,
  "\u2581argument": 7735,
  "rit": 7736,
  "issant": 7737,
  "\u2581taxation": 7738,
  "\u2581surprise": 7739,
  "\u2581brevet": 7740,
  "\u2581lancer": 7741,
  "avi": 7742,
  "-06": 7743,
  "\u2581H\u00f4tels": 7744,
  "\u2581lait": 7745,
  "\u2581ext\u00e9rieure": 7746,
  "wan": 7747,
  "\u2581grow": 7748,
  "\u2581tellement": 7749,
  "str": 7750,
  "\u2581progressive": 7751,
  "\u2581JO": 7752,
  "\u2581sell": 7753,
  "\u2581Music": 7754,
  "\u2581Si\u00e8ge": 7755,
  "\u2581Video": 7756,
  ".2.2": 7757,
  "\u2581accord\u00e9": 7758,
  "\u2581architecture": 7759,
  "\u2581cool": 7760,
  "ume": 7761,
  "\u2581Saturday": 7762,
  "\u2581fournisseur": 7763,
  "\u2581demonstrated": 7764,
  "\u2581waiting": 7765,
  "\u2581conformity": 7766,
  "ili": 7767,
  "\u2581Aide": 7768,
  "\u2581spending": 7769,
  "\u2581Real": 7770,
  "\u2581reprise": 7771,
  "\u2581judiciaires": 7772,
  "\u2581m\u00e9rite": 7773,
  "press": 7774,
  "ero": 7775,
  "\u2581futures": 7776,
  "\u2581probable": 7777,
  "burg": 7778,
  "\u2581sleep": 7779,
  "\u2581pleased": 7780,
  "\u2581\u00e9nonc\u00e9s": 7781,
  "\u2581requises": 7782,
  "\u2581audience": 7783,
  "impression": 7784,
  "ency": 7785,
  "WG": 7786,
  "\u2581tension": 7787,
  "\u2581Commerce": 7788,
  "\u2581Kar": 7789,
  "\u2581int\u00e9ressant": 7790,
  "\u2581d\u00e9velopp\u00e9s": 7791,
  "\u2581Vienna": 7792,
  "Italie": 7793,
  "\u2581male": 7794,
  "esse": 7795,
  "-05": 7796,
  "\u2581collectivit\u00e9": 7797,
  "\u2581clinical": 7798,
  "\u2581adjustment": 7799,
  "\u2581situated": 7800,
  "tech": 7801,
  "\u2581d\u00e9cret": 7802,
  "\u2581GR": 7803,
  "\u2581named": 7804,
  "\u2581schemes": 7805,
  "\u2581tomorrow": 7806,
  "\u2581Ha\u00efti": 7807,
  "\u2581cherche": 7808,
  "\u2581discours": 7809,
  "\u2581institutionnel": 7810,
  "ommercialisation": 7811,
  "\u2581Earth": 7812,
  "\u2581s\u00e9nateurs": 7813,
  "\u2581SE": 7814,
  "\u2581faibles": 7815,
  "oy": 7816,
  "win": 7817,
  "RC": 7818,
  "\u2581lessons": 7819,
  "\u2581inclusive": 7820,
  "\u2581File": 7821,
  "\u2581minorities": 7822,
  "cut": 7823,
  "Ch": 7824,
  "\u2581\u00e9nonc\u00e9es": 7825,
  "OJ": 7826,
  "\u2581discuter": 7827,
  "VI": 7828,
  "\u2581mail": 7829,
  "mis": 7830,
  "\u2581suppose": 7831,
  "\u2581Question": 7832,
  "\u2581refers": 7833,
  "\u2581Nor": 7834,
  "\u2581charged": 7835,
  "\u2581g\u00e9n\u00e9ration": 7836,
  "\u2581thereby": 7837,
  "\u2581USD": 7838,
  "\u2581Task": 7839,
  "\u2581Notice": 7840,
  "\u2581meat": 7841,
  "\u2581conna\u00eet": 7842,
  "\u2581offert": 7843,
  "uel": 7844,
  "5,": 7845,
  "\u2581participent": 7846,
  ".12": 7847,
  "ives": 7848,
  "\u2581Based": 7849,
  "lia": 7850,
  "2014": 7851,
  "\u2581serving": 7852,
  "identit\u00e9": 7853,
  "\u2581incorporated": 7854,
  "\u2581attempt": 7855,
  "\u2581m\u00e9": 7856,
  "\u2581cinqui\u00e8me": 7857,
  "\u2581d\u00e9cide": 7858,
  "ira": 7859,
  "\u2581Full": 7860,
  "\u2581accepter": 7861,
  "az": 7862,
  "ee": 7863,
  "hen": 7864,
  "\u2581Sol": 7865,
  ">": 7866,
  "\u2581passagers": 7867,
  "\u2581fisheries": 7868,
  "\u2581Innovation": 7869,
  "\u2581Petit": 7870,
  "\u2581variables": 7871,
  "\u2581ph\u00e9nom\u00e8ne": 7872,
  "\u2581fonctionne": 7873,
  "\u2581Islands": 7874,
  "\u2581Play": 7875,
  "\u2581solidarit\u00e9": 7876,
  "\u2581guarantees": 7877,
  "\u2581continu\u00e9": 7878,
  "\u2581expos\u00e9": 7879,
  "\u2581demandeur": 7880,
  "\u2581contribue": 7881,
  "\u2581int\u00e9grer": 7882,
  "\u2581apport\u00e9": 7883,
  "ball": 7884,
  "\u2581lib\u00e9ration": 7885,
  "\u2581Ah": 7886,
  "\u25811997.": 7887,
  "\u2581providers": 7888,
  "1%": 7889,
  "GE": 7890,
  "\u2581T\u00e9l\u00e9charger": 7891,
  "\u2581IS": 7892,
  "\u2581H\u00f4tel": 7893,
  "\u2581prime": 7894,
  "\u2581Production": 7895,
  "zi": 7896,
  "\u2581carbon": 7897,
  "\u2581touchant": 7898,
  "\u2581variations": 7899,
  "\u2581gets": 7900,
  "\u2581faudra": 7901,
  "\u2581desire": 7902,
  "\u2581Line": 7903,
  "\u2581ice": 7904,
  "\u2581greatest": 7905,
  "\u2581eliminate": 7906,
  "\u2581interface": 7907,
  "\u2581essentielle": 7908,
  "operation": 7909,
  "identification": 7910,
  "\u2581d\u00e9finis": 7911,
  "\u25814.1": 7912,
  "\u2581Corr": 7913,
  "\u2581organic": 7914,
  "\u2581whereas": 7915,
  "\u25813.2": 7916,
  "\u2581int\u00e9rieure": 7917,
  "\u2581installed": 7918,
  "Ar": 7919,
  "\u2581r\u00e9glementaires": 7920,
  "ene": 7921,
  "parle": 7922,
  "\u2581Make": 7923,
  "kg": 7924,
  "\u2581Ban": 7925,
  "\u2581arising": 7926,
  "\u2581combattre": 7927,
  "\u2581pouvaient": 7928,
  "\u2581ter": 7929,
  "\u2581incident": 7930,
  "para": 7931,
  "\u2581demonstrate": 7932,
  "8,": 7933,
  "\u2581electoral": 7934,
  "\u2581prioritaires": 7935,
  "\u2581gars": 7936,
  "\u2581re\u00e7ues": 7937,
  "\u2581whatever": 7938,
  "\u25811991,": 7939,
  "\u2581helps": 7940,
  "tage": 7941,
  "\u2581Mali": 7942,
  "\u2581conduire": 7943,
  "\u2581soin": 7944,
  "\u2581PA": 7945,
  "\u2581conjoint": 7946,
  "\u2581composants": 7947,
  "\u2581Ac": 7948,
  "rio": 7949,
  "\u2581passant": 7950,
  "\u2581wouldn": 7951,
  "\u2581driving": 7952,
  "\u2581men\u00e9": 7953,
  "\u2581susceptible": 7954,
  "\u2581Fo": 7955,
  "\u2581Blue": 7956,
  "RP": 7957,
  "\u2581Chef": 7958,
  "\u2581expos\u00e9s": 7959,
  "\u2581Sainte": 7960,
  "\u2581dur": 7961,
  "\u2581married": 7962,
  "rique": 7963,
  "\u2581n\u00e9anmoins": 7964,
  "\u2581height": 7965,
  "\u2581spend": 7966,
  "\u2581connais": 7967,
  "\u2581jury": 7968,
  "\u2581distinct": 7969,
  "\u2581r\u00e9ussite": 7970,
  "\u2581Discrimination": 7971,
  "\u2581displaced": 7972,
  "\u2581sp\u00e9cialement": 7973,
  "\u2581Thomas": 7974,
  "\u2581Cho": 7975,
  "\u2581nu": 7976,
  "\u2581band": 7977,
  "\u2581envoyer": 7978,
  "site": 7979,
  "\u2581moyennes": 7980,
  "\u2581Several": 7981,
  "\u2581fulfil": 7982,
  "\u2581platform": 7983,
  "\u2581arrival": 7984,
  "\u2581EESC": 7985,
  "bul": 7986,
  "All": 7987,
  "\u2581spring": 7988,
  "\u2581Hong": 7989,
  "\u2581Performance": 7990,
  "\u2581reserve": 7991,
  "\u2581Airport": 7992,
  "vol": 7993,
  "\u2581sheet": 7994,
  "\u2581advertising": 7995,
  "\u2581representing": 7996,
  "\u2581Ali": 7997,
  "\u2581Camp": 7998,
  "\u2581trente": 7999,
  "\u2581personnelles": 8000,
  "\u2581trading": 8001,
  "olo": 8002,
  "\u2581prostitution": 8003,
  "\u2581Sciences": 8004,
  "ender": 8005,
  "\u2581Given": 8006,
  "\u2581Trois": 8007,
  "\u2581Mel": 8008,
  "\u2581Beau": 8009,
  "\u2581d\u00e9bit": 8010,
  "first": 8011,
  "\u2581PM": 8012,
  "\u2581visent": 8013,
  "\u2581northern": 8014,
  "\u2581moments": 8015,
  "oph": 8016,
  "\u2581observe": 8017,
  "sky": 8018,
  "struct": 8019,
  "DD": 8020,
  "\u2581solide": 8021,
  "\u2581disposent": 8022,
  "\u2581limitation": 8023,
  "\u2581forget": 8024,
  "\u2581Net": 8025,
  "\u2581shipping": 8026,
  "room": 8027,
  "\u2581hydro": 8028,
  "\u2581harm": 8029,
  "ente": 8030,
  "ea": 8031,
  "Espagne": 8032,
  "\u2581output": 8033,
  "\u2581bras": 8034,
  "\u2581Session": 8035,
  "\u2581comparaison": 8036,
  "\u2581interdit": 8037,
  "raient": 8038,
  "\u2581rivi\u00e8re": 8039,
  "\u2581bilan": 8040,
  "\u2581replace": 8041,
  "\u2581Allah": 8042,
  "\u2581continuous": 8043,
  "\u2581constructive": 8044,
  "\u2581constitutional": 8045,
  "8%": 8046,
  "\u2581Croatia": 8047,
  "\u2581p\u00e9riodique": 8048,
  "\u2581comparison": 8049,
  "\u2581$2": 8050,
  "Do": 8051,
  "\u2581Comments": 8052,
  "\u2581CESE": 8053,
  "\u2581Jerusalem": 8054,
  "\u2581r\u00e9elle": 8055,
  "g\u00e9": 8056,
  "\u2581showing": 8057,
  "aki": 8058,
  "ident": 8059,
  "MD": 8060,
  "\u2581amending": 8061,
  "\u2581Miss": 8062,
  "\u2581tariff": 8063,
  "\u2581asylum": 8064,
  "\u2581Province": 8065,
  "\u2581executive": 8066,
  "\u2581continuera": 8067,
  "\u2581ill": 8068,
  "\u2581Vo": 8069,
  "gin": 8070,
  "\u2581handicap\u00e9s": 8071,
  "\u2581visitors": 8072,
  "hy": 8073,
  "\u2581complainant": 8074,
  "\u2581Sri": 8075,
  "\u2581Letter": 8076,
  "tz": 8077,
  "\u2581adult": 8078,
  "\u2581album": 8079,
  "\u2581Madame": 8080,
  "\u2581r\u00e9centes": 8081,
  "\u2581puisqu": 8082,
  "var": 8083,
  "\u2581mobility": 8084,
  "Art": 8085,
  "\u2581ciel": 8086,
  "exclusion": 8087,
  "\u2581effectifs": 8088,
  "\u2581HD": 8089,
  "\u2581demands": 8090,
  "\u2581toward": 8091,
  "\u2581hell": 8092,
  "\u2581passion": 8093,
  "\u2581Partnership": 8094,
  "phone": 8095,
  "\u2581int\u00e9ress\u00e9es": 8096,
  "\u2581pr\u00e9server": 8097,
  "awa": 8098,
  "\u25811978": 8099,
  "\u2581brut": 8100,
  "\u2581introduce": 8101,
  "\u2581sucre": 8102,
  "place": 8103,
  "\u2581corporation": 8104,
  "\u2581Previous": 8105,
  "\u2581ro": 8106,
  "\u2581Reports": 8107,
  "\u2581Introduction": 8108,
  "\u2581secr\u00e9taire": 8109,
  "\u2581treat": 8110,
  "v\u00e9": 8111,
  "\u2581subjects": 8112,
  "\u2581Client": 8113,
  "\u2581relationships": 8114,
  "\u2581Procedure": 8115,
  "\u2581viennent": 8116,
  "\u2581pop": 8117,
  "arm\u00e9e": 8118,
  "\u2581rock": 8119,
  "\u2581employers": 8120,
  "\u2581productivit\u00e9": 8121,
  "\u2581dangereuses": 8122,
  "\u2581espagnol": 8123,
  "existe": 8124,
  "acquisition": 8125,
  "\u00e8s": 8126,
  "\u2581Survey": 8127,
  "\u2581comparable": 8128,
  "\u2581Ke": 8129,
  "\u2581translation": 8130,
  "\u2581reply": 8131,
  "\u2581prochaines": 8132,
  "\u25811981": 8133,
  "-14": 8134,
  "\u2581sensitive": 8135,
  "\u2581Message": 8136,
  "oxy": 8137,
  "\u2581m\u00e9lange": 8138,
  "\u2581atmosphere": 8139,
  "\u2581Afficher": 8140,
  "\u2581festivals": 8141,
  "\u2581recruitment": 8142,
  "\u2581appliqu\u00e9es": 8143,
  "\u2581accused": 8144,
  "\u2581rehabilitation": 8145,
  "TV": 8146,
  "ico": 8147,
  "\u00e9valuer": 8148,
  "tive": 8149,
  "qua": 8150,
  "\u2581P\u00e8re": 8151,
  "\u2581conseiller": 8152,
  "ault": 8153,
  "\u2581ve": 8154,
  "\u2581Station": 8155,
  "\u2581Card": 8156,
  "\u2581bient\u00f4t": 8157,
  "\u2581complexes": 8158,
  "\u2581edition": 8159,
  "bb": 8160,
  "\u00e9viter": 8161,
  "\u2581Resolution": 8162,
  "PO": 8163,
  "met": 8164,
  "\u2581appels": 8165,
  "with": 8166,
  ".1,": 8167,
  "\u2581bal": 8168,
  "interm\u00e9diaire": 8169,
  "\u2581haven": 8170,
  "SM": 8171,
  "\u2581homes": 8172,
  "\u2581Treasury": 8173,
  "ram": 8174,
  "\u2581injury": 8175,
  "\u25811975": 8176,
  "\u2581Prie": 8177,
  "\u2581cible": 8178,
  "gra": 8179,
  "tier": 8180,
  "\u2581Industrial": 8181,
  "\u2581Asian": 8182,
  "\u2581\u00e2g\u00e9s": 8183,
  "esp\u00e8ce": 8184,
  "\u2581durables": 8185,
  "\u2581concr\u00e8tes": 8186,
  "\u2581m\u00e9dical": 8187,
  "\u2581op\u00e9rationnelles": 8188,
  "\u2581ajout\u00e9e": 8189,
  "\u2581believes": 8190,
  "acc": 8191,
  "\u25814.2": 8192,
  "\u2581constitu\u00e9": 8193,
  "\u2581newsletter": 8194,
  "\u2581Pu": 8195,
  "\u2581cabinet": 8196,
  "\u2581industriel": 8197,
  "\u2581connexion": 8198,
  "\u2581Investment": 8199,
  "\u2581Very": 8200,
  "gr": 8201,
  "\u2581Among": 8202,
  "long": 8203,
  "\u2581arr\u00eat": 8204,
  "\u2581logo": 8205,
  "\u2581affectation": 8206,
  "\u2581manufacture": 8207,
  "rich": 8208,
  "\u2581universelle": 8209,
  "\u2581penalty": 8210,
  "a\u00e9roport": 8211,
  "\u2581Marine": 8212,
  "\u2581enterprise": 8213,
  "\u2581ownership": 8214,
  "tif": 8215,
  "oeuvre": 8216,
  "\u2581parlementaire": 8217,
  "\u2581Assistant": 8218,
  "\u2581pri\u00e8re": 8219,
  "\u2581Property": 8220,
  "\u2581awarded": 8221,
  "nch": 8222,
  "\u2581perception": 8223,
  "\u2581officiels": 8224,
  "\u2581Monitoring": 8225,
  "bin": 8226,
  "inscription": 8227,
  "\u2581subparagraph": 8228,
  "\u2581reliable": 8229,
  "\u2581smaller": 8230,
  "\u2581Th": 8231,
  "\u2581reprises": 8232,
  "\u2581\u00e9poque": 8233,
  "rage": 8234,
  "\u2581capacities": 8235,
  "\u2581define": 8236,
  "\u2581branches": 8237,
  "\u2581annuels": 8238,
  "\u2581Romania": 8239,
  "\u2581counsel": 8240,
  "\u2581ID": 8241,
  "inspection": 8242,
  "\u2581indiquant": 8243,
  "\u2581D\u00e8s": 8244,
  "ifier": 8245,
  "quin": 8246,
  "trans": 8247,
  "\u2581undertakings": 8248,
  "\u2581Partager": 8249,
  "employeur": 8250,
  "\u2581Quant": 8251,
  "\u2581laboratoire": 8252,
  "\u2581strict": 8253,
  "\u2581huge": 8254,
  "\u2581disaster": 8255,
  "\u25813:": 8256,
  "\u2581Mini": 8257,
  "fil": 8258,
  "\u2581Br": 8259,
  "\u2581compare": 8260,
  "\u2581residents": 8261,
  "\u2581universit\u00e9s": 8262,
  "\u2581Londres": 8263,
  "\u2581souhaitent": 8264,
  "/11": 8265,
  "ecommunications": 8266,
  "bal": 8267,
  "economic": 8268,
  "\u2581disability": 8269,
  "emp": 8270,
  "\u2581competitiveness": 8271,
  "\u2581Standing": 8272,
  "nement": 8273,
  "environnementaux": 8274,
  "\u2581vols": 8275,
  "\u2581dimanche": 8276,
  "ena": 8277,
  "\u2581modifiant": 8278,
  "lio": 8279,
  "class": 8280,
  "\u2581certainement": 8281,
  "forme": 8282,
  "HO": 8283,
  "\u2581parfait": 8284,
  "\u2581largely": 8285,
  "\u2581id\u00e9al": 8286,
  "\u2581vide": 8287,
  "\u2581concernent": 8288,
  "mod": 8289,
  "\u2581fell": 8290,
  "bel": 8291,
  "\u2581boy": 8292,
  "\u2581injection": 8293,
  "\u2581kids": 8294,
  "sta": 8295,
  "\u2581terrasse": 8296,
  "\u2581Universit\u00e9": 8297,
  "arriv\u00e9e": 8298,
  "\u2581125": 8299,
  "\u2581r\u00e9alis\u00e9e": 8300,
  "\u2581b\u00e9b\u00e9": 8301,
  "ste": 8302,
  "pha": 8303,
  "\u2581cars": 8304,
  "\u2581Frank": 8305,
  "\u2581\u00e9v\u00e9nement": 8306,
  "\u2581CA": 8307,
  "\u2581propos\u00e9s": 8308,
  "abri": 8309,
  "\u2581exemption": 8310,
  "BA": 8311,
  "\u2581pursue": 8312,
  "\u2581plan\u00e8te": 8313,
  "\u2581navire": 8314,
  "o\u00f9": 8315,
  "\u2581argent": 8316,
  "\u2581ban": 8317,
  "\u2581internationally": 8318,
  "\u2581interdiction": 8319,
  "\u2581Cyprus": 8320,
  "\u2581Form": 8321,
  "\u2581parfaitement": 8322,
  "\u2581hoc": 8323,
  "\u2581geographical": 8324,
  "\u2581punishment": 8325,
  "\u2581c\u00e9l\u00e8bre": 8326,
  "-17": 8327,
  "gel": 8328,
  "\u2581venue": 8329,
  "\u2581Spa": 8330,
  "\u258122.": 8331,
  "Herz\u00e9govine": 8332,
  "\u2581champs": 8333,
  "\u2581furent": 8334,
  "\u2581phases": 8335,
  "ks": 8336,
  "\u2581Nova": 8337,
  "n\u00e9s": 8338,
  "\u2581prenantes": 8339,
  "\u2581Class": 8340,
  "\u2581warm": 8341,
  "omb": 8342,
  "och": 8343,
  "\u2581inscrits": 8344,
  "\u2581consid\u00e9rable": 8345,
  "lim": 8346,
  "AI": 8347,
  "\u2581mortalit\u00e9": 8348,
  "\u2581composed": 8349,
  "\u2581Indeed": 8350,
  "\u2581driver": 8351,
  "\u2581AG": 8352,
  "/2006": 8353,
  "\u2581construire": 8354,
  "observation": 8355,
  "\u2581conviction": 8356,
  "\u2581flexibility": 8357,
  "\u2581achet\u00e9": 8358,
  "EE": 8359,
  "\u2581coin": 8360,
  "\u2581feeling": 8361,
  "\u2581c\u00f4te": 8362,
  "\u2581secondes": 8363,
  "\u2581Ve": 8364,
  "\u2581Manager": 8365,
  "\u2581heads": 8366,
  "\u2581normally": 8367,
  "\u2581Watch": 8368,
  "\u2581attendre": 8369,
  ".12.": 8370,
  "\u2581Er": 8371,
  "\u2581remote": 8372,
  "\u2581barriers": 8373,
  "\u2581mini": 8374,
  "\u2581Through": 8375,
  "\u2581Commentaires": 8376,
  "\u2581comfort": 8377,
  "\u2581Nouvelles": 8378,
  "\u2581appareil": 8379,
  "\u2581Congress": 8380,
  "\u2581candidat": 8381,
  "\u2581Kyoto": 8382,
  "\u2581Syrian": 8383,
  "ime": 8384,
  "\u2581Statement": 8385,
  "\u2581logique": 8386,
  "\u2581morts": 8387,
  "\u2581Wall": 8388,
  "\u2581duquel": 8389,
  "\u2581coh\u00e9sion": 8390,
  "2%": 8391,
  "\u2581Maria": 8392,
  "\u2581arrangement": 8393,
  "\u2581palestinien": 8394,
  "\u2581fabricant": 8395,
  "\u2581kilom\u00e8tres": 8396,
  "\u2581refugee": 8397,
  "\u2581fournissent": 8398,
  "\u2581Copyright": 8399,
  "\u2581quarante": 8400,
  "\u2581entrepreneurs": 8401,
  "\u2581manager": 8402,
  "tron": 8403,
  "national": 8404,
  "\u2581Australie": 8405,
  "Qu": 8406,
  "atif": 8407,
  "\u2581Rule": 8408,
  "ense": 8409,
  "\u2581spiritual": 8410,
  "\u2581Moi": 8411,
  "\u25812004-2005": 8412,
  "\u2581rythme": 8413,
  "\u2581permission": 8414,
  "\u2581900": 8415,
  "\u2581retrouver": 8416,
  "\u2581strengthened": 8417,
  "\u2581traduction": 8418,
  "\u2581Salvador": 8419,
  "\u2581slightly": 8420,
  "\u2581donnant": 8421,
  "oir": 8422,
  "\u2581understood": 8423,
  "gh": 8424,
  "\u2581Android": 8425,
  "\u2581Richard": 8426,
  "\u2581$4": 8427,
  "\u2581drop": 8428,
  "\u2581Send": 8429,
  "len": 8430,
  "nelle": 8431,
  "\u2581Acc": 8432,
  "jan": 8433,
  "\u258123.": 8434,
  "\u2581refus": 8435,
  "\u2581t\u00e9l\u00e9charger": 8436,
  "\u2581pick": 8437,
  "\u2581senators": 8438,
  "\u2581soutient": 8439,
  "\u2581pur": 8440,
  "\u2581(6": 8441,
  "\u2581freedoms": 8442,
  "\u2581Ob": 8443,
  "rog": 8444,
  "\u2581\u00e9trang\u00e8re": 8445,
  "nic": 8446,
  "\u2581ver": 8447,
  "\u2581Exp": 8448,
  "\u25811996.": 8449,
  "\u2581cha": 8450,
  "\u2581calendar": 8451,
  "\u2581u": 8452,
  "\u2581revoir": 8453,
  "\u2581Lettre": 8454,
  "\u2581sides": 8455,
  "\u258124.": 8456,
  "\u2581supposed": 8457,
  "\u2581fat": 8458,
  "tine": 8459,
  "\u2581Goals": 8460,
  "\u2581constante": 8461,
  "\u2581pr": 8462,
  "\u2581Bur": 8463,
  "\u2581army": 8464,
  "stat": 8465,
  "\u2581visage": 8466,
  "ima": 8467,
  "gy": 8468,
  "\u2581russe": 8469,
  "introduction": 8470,
  "\u2581bottom": 8471,
  "\u25814)": 8472,
  "\u2581Mus": 8473,
  "\u2581occupied": 8474,
  "\u2581attended": 8475,
  "\u2581cooperate": 8476,
  "\u2581t\u00e9moin": 8477,
  "\u2581productivity": 8478,
  "\u2581soutenu": 8479,
  "\u2581Rien": 8480,
  "\u2581contribuent": 8481,
  "\u2581Nuclear": 8482,
  "\u2581requ\u00e9rant": 8483,
  "\u2581consult": 8484,
  "cin": 8485,
  "\u258125.": 8486,
  "\u2581expliquer": 8487,
  "\u2581em": 8488,
  "\u2581encouraging": 8489,
  "\u2581environs": 8490,
  "\u2581depends": 8491,
  "\u2581r\u00e9servation": 8492,
  "cc": 8493,
  "\u2581interaction": 8494,
  "tons": 8495,
  ".13": 8496,
  "\u2581alleged": 8497,
  "\u2581Ger": 8498,
  "\u2581pri\u00e9": 8499,
  "\u2581Guatemala": 8500,
  "\u2581faced": 8501,
  "\u2581vari\u00e9t\u00e9": 8502,
  "\u2581voitures": 8503,
  "\u2581revue": 8504,
  "\u2581historic": 8505,
  "\u2581revenir": 8506,
  "\u2581conjointement": 8507,
  "\u2581vouloir": 8508,
  "\u2581avions": 8509,
  "\u2581tenus": 8510,
  "\u2581universel": 8511,
  "\u2581topic": 8512,
  "\u2581Beijing": 8513,
  "\u2581J\u00e9rusalem": 8514,
  "\u2581chain": 8515,
  "\u2581\u00e9tablit": 8516,
  "\u2581cards": 8517,
  "\u2581monetary": 8518,
  "\u2581achats": 8519,
  "\u2581l\u00e9gislatif": 8520,
  "\u2581s\u00e9rieux": 8521,
  "\u2581Bangladesh": 8522,
  "\u2581protecting": 8523,
  "\u2581quels": 8524,
  "\u2581d\u00e9finies": 8525,
  "\u2581jeudi": 8526,
  "\u2581enhancing": 8527,
  "\u2581rappel\u00e9": 8528,
  "\u2581tarifs": 8529,
  "\u2581R\u00e9seau": 8530,
  "ona": 8531,
  "\u2581classified": 8532,
  "\u2581lists": 8533,
  "\u2581Deutsch": 8534,
  "\u2581r\u00e9alis\u00e9es": 8535,
  "\u2581Requests": 8536,
  "\u2581exists": 8537,
  "\u2581professeur": 8538,
  "\u2581losses": 8539,
  "\u2581Login": 8540,
  "\u2581assume": 8541,
  "\u2581Situation": 8542,
  "utilisateur": 8543,
  "\u2581judgment": 8544,
  "\u2581Sector": 8545,
  "\u2581occup\u00e9": 8546,
  "\u2581endroits": 8547,
  "sy": 8548,
  "\u2581R\u00e9ponse": 8549,
  "\u2581cre": 8550,
  "ctor": 8551,
  "\u2581exceptional": 8552,
  "\u2581Pass": 8553,
  "\u2581meant": 8554,
  "\u2581r\u00e9daction": 8555,
  "\u2581vessel": 8556,
  "\u2581Sp": 8557,
  "\u2581Shi": 8558,
  "\u2581identifying": 8559,
  "\u2581visiter": 8560,
  "\u2581artists": 8561,
  "\u2581allait": 8562,
  "\u2581significative": 8563,
  "\u2581Fr": 8564,
  "ple": 8565,
  "\u2581mesurer": 8566,
  "\u2581atelier": 8567,
  "\u2581valuable": 8568,
  "rap": 8569,
  "\u2581dark": 8570,
  "ound": 8571,
  "FM": 8572,
  "\u2581extreme": 8573,
  "\u2581monthly": 8574,
  "CD": 8575,
  "\u2581ren": 8576,
  "quer": 8577,
  "\u2581temple": 8578,
  "\u2581WIPO": 8579,
  "\u2581household": 8580,
  "\u2581fur": 8581,
  "CF": 8582,
  "lat": 8583,
  "\u2581\u00e9gale": 8584,
  "ipp": 8585,
  "\u2581removal": 8586,
  "\u2581annexes": 8587,
  "\u2581DVD": 8588,
  "nant": 8589,
  "\u2581seconds": 8590,
  "\u2581syn": 8591,
  "\u2581frequency": 8592,
  "PM": 8593,
  "gn": 8594,
  "\u2581boys": 8595,
  "\u2581slow": 8596,
  "-16": 8597,
  "issue": 8598,
  "\u2581expliqu\u00e9": 8599,
  "\u2581limitations": 8600,
  "\u00e9r\u00e9": 8601,
  "\u2581measurement": 8602,
[...]
